unsigned char quantized_model_tfl[] = {
  0x1c, 0x00, 0x00, 0x00, 0x54, 0x46, 0x4c, 0x33, 0x14, 0x00, 0x20, 0x00,
  0x1c, 0x00, 0x18, 0x00, 0x14, 0x00, 0x10, 0x00, 0x0c, 0x00, 0x00, 0x00,
  0x08, 0x00, 0x04, 0x00, 0x14, 0x00, 0x00, 0x00, 0x1c, 0x00, 0x00, 0x00,
  0x1c, 0x00, 0x00, 0x00, 0x74, 0x00, 0x00, 0x00, 0x34, 0x2e, 0x00, 0x00,
  0x44, 0x2e, 0x00, 0x00, 0x9c, 0x3d, 0x00, 0x00, 0x03, 0x00, 0x00, 0x00,
  0x00, 0x00, 0x00, 0x00, 0x02, 0x00, 0x00, 0x00, 0x34, 0x00, 0x00, 0x00,
  0x04, 0x00, 0x00, 0x00, 0xdc, 0xff, 0xff, 0xff, 0x12, 0x00, 0x00, 0x00,
  0x04, 0x00, 0x00, 0x00, 0x13, 0x00, 0x00, 0x00, 0x43, 0x4f, 0x4e, 0x56,
  0x45, 0x52, 0x53, 0x49, 0x4f, 0x4e, 0x5f, 0x4d, 0x45, 0x54, 0x41, 0x44,
  0x41, 0x54, 0x41, 0x00, 0x08, 0x00, 0x0c, 0x00, 0x08, 0x00, 0x04, 0x00,
  0x08, 0x00, 0x00, 0x00, 0x11, 0x00, 0x00, 0x00, 0x04, 0x00, 0x00, 0x00,
  0x13, 0x00, 0x00, 0x00, 0x6d, 0x69, 0x6e, 0x5f, 0x72, 0x75, 0x6e, 0x74,
  0x69, 0x6d, 0x65, 0x5f, 0x76, 0x65, 0x72, 0x73, 0x69, 0x6f, 0x6e, 0x00,
  0x13, 0x00, 0x00, 0x00, 0xbc, 0x2d, 0x00, 0x00, 0xb4, 0x2d, 0x00, 0x00,
  0x9c, 0x2d, 0x00, 0x00, 0x64, 0x2d, 0x00, 0x00, 0x54, 0x19, 0x00, 0x00,
  0xc4, 0x18, 0x00, 0x00, 0xb4, 0x06, 0x00, 0x00, 0x64, 0x06, 0x00, 0x00,
  0xd4, 0x01, 0x00, 0x00, 0xa4, 0x01, 0x00, 0x00, 0xbc, 0x00, 0x00, 0x00,
  0xb4, 0x00, 0x00, 0x00, 0xac, 0x00, 0x00, 0x00, 0xa4, 0x00, 0x00, 0x00,
  0x9c, 0x00, 0x00, 0x00, 0x94, 0x00, 0x00, 0x00, 0x8c, 0x00, 0x00, 0x00,
  0x6c, 0x00, 0x00, 0x00, 0x04, 0x00, 0x00, 0x00, 0xf6, 0xd1, 0xff, 0xff,
  0x04, 0x00, 0x00, 0x00, 0x58, 0x00, 0x00, 0x00, 0x0c, 0x00, 0x00, 0x00,
  0x08, 0x00, 0x0e, 0x00, 0x08, 0x00, 0x04, 0x00, 0x08, 0x00, 0x00, 0x00,
  0x10, 0x00, 0x00, 0x00, 0x28, 0x00, 0x00, 0x00, 0x00, 0x00, 0x06, 0x00,
  0x08, 0x00, 0x04, 0x00, 0x06, 0x00, 0x00, 0x00, 0x04, 0x00, 0x00, 0x00,
  0x01, 0x00, 0x00, 0x00, 0xeb, 0x03, 0x00, 0x00, 0x00, 0x00, 0x0a, 0x00,
  0x10, 0x00, 0x0c, 0x00, 0x08, 0x00, 0x04, 0x00, 0x0a, 0x00, 0x00, 0x00,
  0x03, 0x00, 0x00, 0x00, 0x02, 0x00, 0x00, 0x00, 0x04, 0x00, 0x00, 0x00,
  0x06, 0x00, 0x00, 0x00, 0x32, 0x2e, 0x31, 0x34, 0x2e, 0x31, 0x00, 0x00,
  0x5a, 0xd2, 0xff, 0xff, 0x04, 0x00, 0x00, 0x00, 0x10, 0x00, 0x00, 0x00,
  0x31, 0x2e, 0x31, 0x34, 0x2e, 0x30, 0x00, 0x00, 0x00, 0x00, 0x00, 0x00,
  0x00, 0x00, 0x00, 0x00, 0x44, 0xc4, 0xff, 0xff, 0x48, 0xc4, 0xff, 0xff,
  0x4c, 0xc4, 0xff, 0xff, 0x50, 0xc4, 0xff, 0xff, 0x54, 0xc4, 0xff, 0xff,
  0x58, 0xc4, 0xff, 0xff, 0x8e, 0xd2, 0xff, 0xff, 0x04, 0x00, 0x00, 0x00,
  0xd8, 0x00, 0x00, 0x00, 0xf3, 0x20, 0xe4, 0xa3, 0x75, 0xb6, 0xc4, 0x35,
  0xd1, 0xa2, 0x73, 0x9e, 0xb9, 0x7f, 0xd7, 0x97, 0x78, 0xc4, 0xb5, 0x22,
  0xed, 0xa3, 0x63, 0xc5, 0xd3, 0x61, 0xfc, 0x2c, 0x47, 0xce, 0x59, 0x5e,
  0xb2, 0x3d, 0x14, 0xb8, 0x1f, 0x28, 0xb1, 0x7f, 0x27, 0x8f, 0x74, 0x45,
  0xce, 0x36, 0x40, 0xbd, 0x56, 0x0b, 0x99, 0x29, 0x45, 0xaf, 0xf2, 0x05,
  0x37, 0x06, 0x10, 0x71, 0xef, 0x25, 0x43, 0x0d, 0x3d, 0x35, 0xee, 0x5c,
  0x7f, 0xea, 0x15, 0x63, 0xf2, 0x24, 0x0d, 0x10, 0x48, 0x42, 0x03, 0x1d,
  0x2f, 0xfd, 0x22, 0xb3, 0xe3, 0x07, 0xaf, 0x00, 0x21, 0xbc, 0x19, 0x67,
  0x87, 0xfe, 0x73, 0x81, 0x29, 0x1d, 0x9f, 0x17, 0x1e, 0xce, 0x35, 0xfc,
  0xa7, 0xfe, 0xf4, 0xdd, 0x08, 0xf9, 0xed, 0x76, 0x18, 0xa2, 0x53, 0x27,
  0xad, 0x2d, 0x2a, 0xb0, 0x6d, 0x35, 0xbe, 0x6e, 0x1f, 0xbd, 0x2f, 0x02,
  0xd7, 0x7f, 0x25, 0xa5, 0x47, 0x08, 0xc3, 0xe7, 0x2d, 0x30, 0xe6, 0x27,
  0x64, 0xe9, 0x1b, 0x28, 0x0e, 0x28, 0x50, 0xd9, 0x27, 0x7f, 0xeb, 0x34,
  0x39, 0x03, 0x11, 0x2d, 0xfe, 0x26, 0x66, 0xef, 0x1c, 0x40, 0xd0, 0x64,
  0xd4, 0xc3, 0x3c, 0xbb, 0xcb, 0x35, 0xbc, 0xc4, 0x5e, 0xd2, 0xc6, 0x7f,
  0xa9, 0xbd, 0xfd, 0xc6, 0xd3, 0x2b, 0xe2, 0xd6, 0x4a, 0xe2, 0xd0, 0xec,
  0xbc, 0xee, 0x37, 0xcb, 0xb2, 0x7f, 0x98, 0xe0, 0x2d, 0xe4, 0x96, 0x71,
  0xbd, 0xd6, 0x64, 0xb3, 0xa6, 0x4c, 0xbf, 0xc6, 0x3d, 0x9c, 0xb5, 0x7a,
  0xc5, 0x0d, 0x4b, 0xbf, 0x72, 0xd3, 0xff, 0xff, 0x04, 0x00, 0x00, 0x00,
  0x20, 0x00, 0x00, 0x00, 0x63, 0xff, 0xff, 0xff, 0x3c, 0x00, 0x00, 0x00,
  0xd5, 0xfe, 0xff, 0xff, 0x88, 0x09, 0x00, 0x00, 0xec, 0xff, 0xff, 0xff,
  0x23, 0xff, 0xff, 0xff, 0xbf, 0xff, 0xff, 0xff, 0x66, 0x01, 0x00, 0x00,
  0x9e, 0xd3, 0xff, 0xff, 0x04, 0x00, 0x00, 0x00, 0x80, 0x04, 0x00, 0x00,
  0xfc, 0x21, 0xef, 0x1e, 0xe1, 0x0e, 0x0d, 0xfb, 0x36, 0x38, 0xe8, 0x11,
  0xfb, 0xfb, 0x2b, 0x54, 0x48, 0x35, 0xfb, 0x31, 0x0e, 0x13, 0x73, 0x5f,
  0x2c, 0xd9, 0xf2, 0x18, 0xd8, 0xce, 0x0f, 0x01, 0x3f, 0x04, 0xe1, 0x11,
  0x04, 0x1b, 0x39, 0x3e, 0x65, 0x20, 0xf4, 0x2a, 0xc3, 0x11, 0x7f, 0x61,
  0xff, 0xdb, 0xf7, 0x15, 0xcc, 0xd5, 0xfe, 0x19, 0x44, 0xe1, 0x0b, 0xff,
  0x01, 0x05, 0x0d, 0x27, 0x31, 0x1b, 0xfa, 0x27, 0xd0, 0xf7, 0x29, 0x31,
  0x6a, 0xf3, 0xcb, 0x34, 0xd4, 0x16, 0x6f, 0x61, 0x43, 0x28, 0xeb, 0x16,
  0x1f, 0xdb, 0x75, 0x5c, 0x44, 0xbf, 0x20, 0x09, 0xb9, 0xde, 0x6b, 0x41,
  0x6f, 0x2b, 0xdf, 0x4b, 0xfc, 0x9d, 0x62, 0x68, 0x49, 0xfe, 0x00, 0x3a,
  0x33, 0xd2, 0x7f, 0x56, 0x05, 0xd0, 0xf7, 0x36, 0x88, 0xce, 0x28, 0x32,
  0x4a, 0x17, 0xce, 0x00, 0xf9, 0x06, 0x1d, 0x2a, 0x29, 0x45, 0xc2, 0x3a,
  0x03, 0xc8, 0x68, 0x06, 0xf7, 0xd3, 0xf0, 0x0a, 0xc4, 0xb5, 0xd6, 0xe5,
  0x1a, 0xd2, 0x0b, 0x2d, 0xe1, 0xff, 0x49, 0x2a, 0x48, 0xf8, 0xe5, 0xf9,
  0xf4, 0xfa, 0x3e, 0x28, 0x08, 0xfc, 0xf8, 0x0b, 0xc9, 0xff, 0x11, 0x3e,
  0x7a, 0x0d, 0xeb, 0x1f, 0x0b, 0x08, 0x39, 0x69, 0x7a, 0x13, 0xef, 0x47,
  0xf2, 0x03, 0x6d, 0x7f, 0x4c, 0xfa, 0xfd, 0x4f, 0xda, 0xd5, 0x70, 0x3b,
  0x28, 0x09, 0xe5, 0x11, 0xf2, 0xfe, 0x26, 0x28, 0x50, 0x0b, 0xf7, 0x1a,
  0xeb, 0x06, 0x60, 0x2e, 0x35, 0x24, 0xe0, 0x36, 0xe3, 0xf0, 0x45, 0x58,
  0x18, 0x57, 0xe3, 0x34, 0x52, 0xd8, 0x2c, 0x38, 0x0a, 0x78, 0x01, 0x5f,
  0x79, 0xcb, 0x1a, 0x2d, 0x0f, 0x5d, 0xe6, 0x64, 0x4f, 0xc4, 0x3f, 0x60,
  0x04, 0x3e, 0xf3, 0x3d, 0x31, 0xbb, 0x14, 0x3d, 0xdd, 0x4c, 0xe9, 0x40,
  0x53, 0xbe, 0x1b, 0x00, 0x09, 0x7f, 0xf4, 0x70, 0x73, 0xaf, 0x08, 0x27,
  0xfb, 0xe5, 0xfe, 0xda, 0x12, 0xe7, 0x11, 0x25, 0x14, 0x49, 0x10, 0x34,
  0x48, 0xfb, 0xdb, 0x2a, 0xc7, 0x0e, 0xbf, 0x33, 0x45, 0xbb, 0x03, 0x07,
  0x30, 0x3f, 0xda, 0x16, 0x17, 0x05, 0x5e, 0x52, 0x14, 0x6a, 0xec, 0x34,
  0x71, 0x08, 0x3f, 0x35, 0x46, 0x2c, 0xf6, 0x31, 0x33, 0xf7, 0x42, 0x40,
  0x16, 0x25, 0xe5, 0x55, 0x4a, 0xbd, 0x3d, 0x36, 0x1e, 0x5f, 0xee, 0x56,
  0x7f, 0xd0, 0x3b, 0x13, 0x0c, 0x5a, 0x09, 0x47, 0x60, 0xe5, 0x37, 0x39,
  0xc6, 0x00, 0xa7, 0xeb, 0xe2, 0xbe, 0xee, 0xdb, 0x8e, 0x10, 0x8b, 0xfd,
  0x28, 0x84, 0xac, 0xa9, 0xa9, 0x0c, 0xc8, 0x2f, 0x2f, 0x90, 0xbf, 0xa6,
  0x36, 0x23, 0x1f, 0xfe, 0x09, 0xed, 0x3a, 0x54, 0x2c, 0x48, 0xf9, 0x20,
  0x25, 0xd4, 0x59, 0x1c, 0xb4, 0xe1, 0x94, 0x2d, 0xdd, 0xa4, 0xde, 0xcc,
  0x6d, 0xf2, 0x0f, 0x09, 0x14, 0x14, 0x38, 0x6d, 0x3d, 0x3b, 0xef, 0x58,
  0x2c, 0xd2, 0x6a, 0x53, 0xc5, 0xeb, 0x81, 0x02, 0xec, 0x8b, 0xe3, 0xd5,
  0x5f, 0xf7, 0x1f, 0x17, 0xff, 0x39, 0x26, 0x20, 0x3a, 0x27, 0xe5, 0x56,
  0x22, 0xde, 0x29, 0x26, 0xed, 0xfc, 0x8e, 0x12, 0xec, 0xb0, 0xef, 0xf6,
  0xec, 0x25, 0xe6, 0xf5, 0x03, 0x0b, 0xcf, 0xf6, 0xda, 0x07, 0x1b, 0xfe,
  0x26, 0x13, 0xea, 0xff, 0xf5, 0x2f, 0x07, 0x1d, 0x3a, 0x14, 0x0e, 0xf7,
  0xeb, 0x35, 0xf3, 0x2a, 0x5e, 0xda, 0xec, 0x0b, 0x06, 0x44, 0x23, 0x3d,
  0x7f, 0xef, 0xf6, 0x25, 0xe3, 0x42, 0xec, 0x2e, 0x4a, 0xf5, 0xf7, 0x0b,
  0xec, 0x2d, 0xe2, 0x15, 0x33, 0xe1, 0x09, 0xfd, 0xfb, 0x58, 0xef, 0x16,
  0x4e, 0xf9, 0xf8, 0x06, 0xcd, 0x20, 0xfd, 0x02, 0x1f, 0xf5, 0xdc, 0xe3,
  0x0c, 0x3f, 0xe4, 0x23, 0x1d, 0x1d, 0x2c, 0xf8, 0xe6, 0x02, 0xfd, 0xf6,
  0x1e, 0xff, 0xf9, 0xf7, 0xe2, 0xc8, 0x3b, 0xfd, 0xc4, 0x41, 0xfd, 0xf4,
  0xfd, 0x12, 0xfc, 0x26, 0xe5, 0xdc, 0xf5, 0xdc, 0x0c, 0x36, 0x11, 0x27,
  0x3f, 0xe0, 0xf7, 0x01, 0x2a, 0xfe, 0x4e, 0x12, 0x04, 0x24, 0xf3, 0x23,
  0x05, 0x21, 0x16, 0xdf, 0xf1, 0xea, 0xe8, 0xf6, 0xe9, 0x5f, 0x1e, 0x4c,
  0x7f, 0xe3, 0x2b, 0x36, 0xff, 0x50, 0xdb, 0x3f, 0x65, 0xd0, 0xf6, 0xeb,
  0x5c, 0x0d, 0xea, 0x35, 0xea, 0x18, 0x45, 0x51, 0x4e, 0x19, 0x19, 0x3a,
  0xdc, 0x19, 0x56, 0x2a, 0xf7, 0x02, 0xc0, 0xfb, 0xaa, 0xb3, 0xeb, 0x1f,
  0x4d, 0xcd, 0x10, 0x23, 0xc8, 0x07, 0x4a, 0x38, 0x6f, 0x0d, 0x03, 0x48,
  0xe5, 0xd4, 0x7f, 0x71, 0x29, 0x03, 0xd9, 0x4d, 0xf6, 0x04, 0x33, 0x4c,
  0x3e, 0xea, 0xe5, 0xf3, 0xdf, 0xb2, 0x3e, 0x39, 0x29, 0x24, 0xc5, 0x48,
  0x0b, 0xc8, 0x34, 0x3e, 0x0d, 0xf6, 0xa9, 0x4a, 0xef, 0x93, 0x58, 0x24,
  0x0e, 0xde, 0x10, 0xe0, 0x0c, 0x06, 0x41, 0x13, 0x19, 0x33, 0xf8, 0x4a,
  0x49, 0xb7, 0x1e, 0x32, 0x14, 0x46, 0x04, 0x69, 0x61, 0xbd, 0xf8, 0x38,
  0x4d, 0x26, 0x14, 0x2f, 0x1c, 0x26, 0x5c, 0x40, 0x22, 0x41, 0xc8, 0x26,
  0x61, 0xbf, 0x2b, 0x34, 0xd7, 0x67, 0xdf, 0x31, 0x7f, 0xb7, 0x02, 0x36,
  0x24, 0x21, 0x02, 0x14, 0x12, 0xf9, 0x26, 0x41, 0x22, 0x14, 0x08, 0x27,
  0x46, 0x0e, 0x08, 0x3f, 0xe2, 0x2a, 0xf3, 0x16, 0xf8, 0xf9, 0x34, 0x09,
  0x33, 0xe1, 0x0c, 0x08, 0xde, 0xfa, 0x2a, 0x22, 0x64, 0x03, 0x5a, 0xde,
  0xe6, 0x19, 0x1b, 0x2e, 0x29, 0xcb, 0x50, 0x0f, 0xc4, 0x66, 0xf8, 0xeb,
  0x68, 0xe9, 0x04, 0x05, 0xf2, 0x05, 0x33, 0x30, 0x7f, 0xf2, 0x22, 0x00,
  0xd5, 0x40, 0x74, 0x51, 0x46, 0xbf, 0x5c, 0x07, 0xc9, 0x4a, 0x1e, 0x34,
  0x1e, 0xe2, 0xfd, 0x10, 0xe7, 0xd0, 0x51, 0x31, 0x16, 0x1b, 0x02, 0xfc,
  0x0e, 0x10, 0x58, 0x1e, 0x16, 0xd3, 0xf1, 0x13, 0xe5, 0x16, 0x22, 0x21,
  0x38, 0xe2, 0x54, 0x05, 0xeb, 0x4b, 0xf6, 0xfe, 0x01, 0xf8, 0x7f, 0x0e,
  0xf9, 0x5d, 0xf5, 0x21, 0xe6, 0xc8, 0x22, 0xfa, 0xd2, 0x6a, 0xf0, 0xb8,
  0x08, 0xf9, 0x61, 0x1d, 0x30, 0x49, 0x21, 0x1d, 0x3b, 0xf3, 0x60, 0xe0,
  0x2d, 0x7b, 0x2c, 0x44, 0xdf, 0x11, 0x77, 0xef, 0x20, 0x48, 0xd7, 0xcc,
  0xf9, 0xfe, 0xf8, 0xf0, 0x25, 0xfe, 0x29, 0xdf, 0x39, 0x04, 0x54, 0xe1,
  0x09, 0x47, 0x13, 0x09, 0xdf, 0x0e, 0x3c, 0xf8, 0xf1, 0x00, 0x04, 0xd6,
  0xde, 0x2d, 0x19, 0x0e, 0x2b, 0x37, 0xe0, 0xd7, 0xfd, 0x1b, 0x39, 0xeb,
  0x60, 0x5f, 0xde, 0x0e, 0xf1, 0x08, 0x1d, 0x28, 0x55, 0x36, 0xef, 0xb9,
  0xfd, 0xe6, 0x57, 0xdf, 0xda, 0x43, 0xb0, 0xc9, 0xfe, 0xe5, 0x7f, 0xa8,
  0xe3, 0x76, 0xb4, 0xc5, 0xe4, 0xfb, 0x5a, 0xd1, 0xdf, 0x5f, 0xef, 0xf3,
  0x27, 0x13, 0x53, 0x0b, 0xf0, 0x22, 0xef, 0x03, 0x0a, 0xfc, 0x50, 0x01,
  0xf4, 0x68, 0xe5, 0x06, 0xfe, 0xec, 0x5e, 0xb9, 0xfd, 0x5c, 0xe7, 0xcc,
  0x60, 0xff, 0xed, 0x13, 0xdd, 0xea, 0x04, 0x03, 0x1d, 0xe9, 0x0b, 0x1c,
  0xf0, 0x01, 0x0d, 0x5f, 0x13, 0xd4, 0xc8, 0x03, 0xde, 0x11, 0x02, 0xd8,
  0x2d, 0x07, 0x31, 0x00, 0xfe, 0x4e, 0x58, 0x2d, 0x7f, 0xd0, 0x15, 0xe8,
  0x06, 0x59, 0x3f, 0x79, 0x36, 0xc9, 0x14, 0x1a, 0xf2, 0x50, 0x20, 0x21,
  0x71, 0x11, 0x34, 0x36, 0xf3, 0x11, 0x59, 0x28, 0x1e, 0x1c, 0x73, 0xd8,
  0xd5, 0x59, 0x47, 0x6b, 0xec, 0xbf, 0x2e, 0xbc, 0xa4, 0x12, 0xe2, 0xc5,
  0xe4, 0xbd, 0xc0, 0x06, 0xd9, 0xcf, 0x9c, 0xb0, 0x38, 0xe7, 0x1a, 0xf1,
  0xfc, 0x04, 0x0e, 0x17, 0x41, 0x1e, 0x17, 0x1a, 0xea, 0x06, 0x2e, 0x18,
  0xb3, 0x91, 0x81, 0xfd, 0xa9, 0x89, 0xd2, 0xa0, 0x49, 0xf8, 0xe6, 0xf5,
  0xef, 0xf7, 0x11, 0x27, 0x2c, 0x24, 0x12, 0x0c, 0x0e, 0x0a, 0x4b, 0x48,
  0xef, 0xa3, 0xb1, 0xd5, 0xc3, 0xcb, 0xd6, 0xcd, 0x4b, 0xff, 0x0f, 0x13,
  0xfd, 0xfa, 0x21, 0x46, 0x51, 0x27, 0x0d, 0x35, 0x29, 0x23, 0x55, 0x4a,
  0x4d, 0x16, 0x33, 0xfa, 0xe8, 0x0f, 0x17, 0x10, 0x15, 0xd6, 0x13, 0xe2,
  0xe6, 0x07, 0xfe, 0x23, 0x64, 0xd4, 0x1c, 0x01, 0xb0, 0x3d, 0x43, 0xff,
  0x54, 0xfa, 0x32, 0xff, 0xe7, 0x2b, 0x12, 0xf1, 0x7f, 0xe6, 0x65, 0xfc,
  0xef, 0x56, 0x2a, 0x4d, 0x77, 0xd0, 0x39, 0x14, 0xe3, 0x3d, 0x47, 0x32,
  0x3c, 0xef, 0x12, 0x10, 0x03, 0x12, 0x4a, 0x42, 0x55, 0x0d, 0x0a, 0x22,
  0xe0, 0x51, 0x4d, 0x50, 0x1e, 0xfd, 0x34, 0xe3, 0xee, 0x37, 0x46, 0x4b,
  0x2a, 0xd8, 0xff, 0xff, 0x04, 0x00, 0x00, 0x00, 0x40, 0x00, 0x00, 0x00,
  0x15, 0xf8, 0xff, 0xff, 0xd4, 0xfd, 0xff, 0xff, 0x1f, 0xfa, 0xff, 0xff,
  0xda, 0xff, 0xff, 0xff, 0x0a, 0x03, 0x00, 0x00, 0xb1, 0x09, 0x00, 0x00,
  0xcf, 0xfd, 0xff, 0xff, 0xfe, 0xfc, 0xff, 0xff, 0x0d, 0xff, 0xff, 0xff,
  0xbe, 0xf8, 0xff, 0xff, 0x24, 0xfe, 0xff, 0xff, 0xc2, 0xfe, 0xff, 0xff,
  0x89, 0xff, 0xff, 0xff, 0xde, 0xf7, 0xff, 0xff, 0x50, 0x04, 0x00, 0x00,
  0x65, 0xf9, 0xff, 0xff, 0x76, 0xd8, 0xff, 0xff, 0x04, 0x00, 0x00, 0x00,
  0x00, 0x12, 0x00, 0x00, 0xf7, 0xf3, 0x42, 0x9a, 0xc0, 0x94, 0x24, 0xc6,
  0xf9, 0x18, 0xf7, 0x35, 0x05, 0x21, 0xb1, 0x33, 0xfe, 0xcd, 0x2e, 0xcf,
  0xc4, 0x81, 0xb1, 0xd8, 0xe1, 0xf7, 0x01, 0xeb, 0x21, 0x45, 0x00, 0x32,
  0xee, 0xe5, 0xdf, 0x02, 0xd4, 0xc6, 0xfc, 0x05, 0xa3, 0xd3, 0xd8, 0x13,
  0x06, 0x27, 0xb4, 0xea, 0x65, 0x4a, 0x2e, 0xe6, 0xee, 0xdd, 0x01, 0x4d,
  0x34, 0xfa, 0x50, 0xe8, 0xc0, 0x11, 0x0a, 0x1b, 0x31, 0x4f, 0x44, 0xd3,
  0xfd, 0xaa, 0x88, 0xfb, 0x20, 0x1f, 0x56, 0x1e, 0xe3, 0x42, 0xf4, 0x1d,
  0x78, 0x2f, 0x21, 0xf1, 0x06, 0xb2, 0xe2, 0x47, 0x4d, 0xf9, 0x5f, 0x2f,
  0x1f, 0xf1, 0x4c, 0x42, 0x1d, 0x26, 0xf7, 0x10, 0x08, 0x26, 0x38, 0x40,
  0xf6, 0x18, 0x26, 0xe0, 0xe3, 0x35, 0xe3, 0x21, 0x04, 0x26, 0x22, 0x09,
  0xdf, 0xa8, 0xbe, 0xed, 0xd4, 0xea, 0xfa, 0xe8, 0xe6, 0xed, 0xea, 0x41,
  0x39, 0x38, 0x44, 0xbf, 0xd2, 0x2b, 0x03, 0x44, 0x04, 0x19, 0x21, 0x1b,
  0xfa, 0xf3, 0x7c, 0x4b, 0x0c, 0xfb, 0x11, 0x1c, 0x03, 0x02, 0xed, 0x1c,
  0x18, 0x0f, 0x13, 0x1b, 0xe0, 0xf1, 0x02, 0x16, 0xdb, 0x09, 0x04, 0xe6,
  0xd8, 0xfb, 0xfb, 0xea, 0xdd, 0x1b, 0x05, 0xf0, 0x13, 0x10, 0x33, 0x0c,
  0xe1, 0xd4, 0x11, 0x13, 0xfe, 0xd0, 0x37, 0x1e, 0xf4, 0x04, 0xee, 0xfa,
  0x23, 0x1b, 0xaf, 0x02, 0x45, 0x1e, 0xef, 0x2a, 0xce, 0x33, 0xeb, 0xe2,
  0xdb, 0xef, 0xee, 0xbb, 0xdc, 0xe8, 0x32, 0xe2, 0xee, 0x29, 0x0c, 0x0f,
  0xb5, 0x40, 0xdf, 0x19, 0x11, 0x0e, 0x03, 0xf8, 0xf2, 0xd7, 0x7f, 0xfd,
  0xe2, 0xe4, 0xf3, 0xfb, 0x30, 0xe6, 0x0d, 0x2f, 0x04, 0xf0, 0x18, 0x36,
  0x03, 0x02, 0xd6, 0x13, 0x14, 0xf4, 0x07, 0x18, 0xce, 0x2c, 0xfe, 0x2f,
  0x1f, 0x0d, 0xfa, 0x1a, 0x32, 0xf0, 0x66, 0x1e, 0xe8, 0x34, 0xfc, 0x08,
  0xfa, 0x71, 0x20, 0xeb, 0x0f, 0x36, 0xce, 0xd6, 0xe4, 0x12, 0x12, 0xd0,
  0xeb, 0xe6, 0xf5, 0xda, 0xdb, 0xfd, 0xcc, 0x2a, 0xee, 0xee, 0x06, 0xfc,
  0x0d, 0xee, 0x22, 0xf8, 0x27, 0x1c, 0x11, 0x4c, 0x4c, 0xfe, 0x10, 0x28,
  0x0d, 0x03, 0x17, 0x13, 0x24, 0x06, 0xf8, 0x19, 0xd6, 0x29, 0xdc, 0x2a,
  0x7f, 0x25, 0x48, 0x57, 0x35, 0x21, 0xfb, 0xff, 0xf9, 0xc6, 0xab, 0xcc,
  0xcf, 0xd9, 0x2e, 0x05, 0x11, 0xd3, 0x0a, 0xcb, 0x1a, 0xd6, 0x25, 0x24,
  0xea, 0x0b, 0x02, 0xfc, 0xbd, 0x23, 0xe5, 0x4b, 0x55, 0x3a, 0x2d, 0xcc,
  0xc4, 0x10, 0xb5, 0xc9, 0xbf, 0xc7, 0xf9, 0xa4, 0xfe, 0xcc, 0xda, 0x37,
  0x24, 0x0a, 0x40, 0x2f, 0xaf, 0xf2, 0x88, 0xae, 0xe1, 0xa2, 0x48, 0xcc,
  0x48, 0x1a, 0x29, 0xf0, 0xf6, 0xe5, 0x33, 0x34, 0x0d, 0xcd, 0x2f, 0xcf,
  0x24, 0xfa, 0x4e, 0xfe, 0xd7, 0xce, 0xbc, 0x02, 0xf5, 0xf4, 0x41, 0x3c,
  0xa7, 0x07, 0xe0, 0xee, 0x47, 0x2e, 0x30, 0x05, 0x24, 0xca, 0xfe, 0x16,
  0x87, 0x1b, 0x27, 0xfd, 0xe7, 0x27, 0xe9, 0x29, 0x54, 0x0f, 0x2d, 0x39,
  0xf8, 0x13, 0x29, 0x04, 0xe3, 0x29, 0xd3, 0x06, 0xfc, 0x38, 0xf4, 0x08,
  0x2c, 0x0e, 0x0a, 0xf6, 0x00, 0x06, 0xc3, 0x1f, 0x2e, 0x10, 0x5a, 0x02,
  0xb6, 0x28, 0x09, 0xe3, 0x1b, 0x0c, 0x6e, 0x09, 0x12, 0xf9, 0x2d, 0xe2,
  0xcb, 0x4c, 0xeb, 0x2b, 0x13, 0x10, 0x48, 0x41, 0x49, 0x14, 0x63, 0xfe,
  0x37, 0xda, 0xe2, 0x02, 0xfa, 0xd7, 0x22, 0x16, 0xeb, 0x27, 0xc4, 0xc2,
  0x08, 0xbb, 0x3b, 0xb1, 0xe5, 0xdd, 0xaf, 0xe6, 0x0f, 0xcc, 0xf4, 0x1e,
  0xce, 0xb0, 0x3c, 0x23, 0x0a, 0x09, 0x04, 0x09, 0x0c, 0xd5, 0x28, 0xf7,
  0xc8, 0x18, 0x17, 0xc3, 0x18, 0x00, 0xdf, 0x27, 0xf1, 0x2b, 0xf4, 0x2f,
  0xa0, 0x06, 0xcd, 0x52, 0x57, 0x3e, 0x53, 0x35, 0xa2, 0x34, 0x81, 0x9d,
  0x8f, 0xa3, 0xfd, 0xb1, 0xd7, 0x04, 0x17, 0xf4, 0x28, 0x1f, 0x31, 0xf3,
  0xf6, 0xd7, 0xf7, 0xed, 0x25, 0xce, 0x0d, 0xe2, 0xde, 0x98, 0xcc, 0xf9,
  0xbc, 0xdd, 0xfa, 0xf5, 0x24, 0xf5, 0x29, 0x20, 0x67, 0x40, 0x62, 0x01,
  0x24, 0xec, 0xf1, 0x4e, 0x5d, 0xff, 0x55, 0xf1, 0xea, 0x36, 0x0b, 0x04,
  0x21, 0x19, 0xee, 0xf8, 0xc2, 0xe6, 0xd4, 0xdf, 0xc4, 0x83, 0xd7, 0x19,
  0xe6, 0xbc, 0xf2, 0x0b, 0x13, 0x0b, 0xb3, 0x0f, 0x0b, 0xda, 0xfe, 0xfe,
  0xd4, 0x81, 0x18, 0x0c, 0xd6, 0xb6, 0x31, 0x0f, 0x01, 0x04, 0xc7, 0x3c,
  0x26, 0xe7, 0x0e, 0xdf, 0xd3, 0xde, 0x27, 0xe3, 0x12, 0x27, 0xef, 0x0c,
  0xb5, 0xfc, 0x13, 0x28, 0x02, 0x07, 0x12, 0x1b, 0x19, 0xdf, 0x0f, 0xf4,
  0x20, 0xf5, 0x37, 0xe7, 0xd6, 0xe4, 0xdb, 0x22, 0x18, 0x17, 0x40, 0x18,
  0x0b, 0xbd, 0x2c, 0xfe, 0x29, 0x23, 0x3a, 0x0f, 0x02, 0x1a, 0xb6, 0x23,
  0x06, 0xf8, 0x0b, 0x30, 0xe3, 0xc6, 0x11, 0x0e, 0xdd, 0x0f, 0x23, 0x19,
  0xe4, 0xee, 0xe4, 0xfe, 0x1d, 0x28, 0x35, 0xef, 0x0c, 0x90, 0xf7, 0xee,
  0xeb, 0x05, 0x06, 0x20, 0xf4, 0xf4, 0xc9, 0x06, 0x2c, 0xfa, 0x24, 0x02,
  0x41, 0xba, 0xe5, 0xf8, 0x2d, 0x04, 0xee, 0x16, 0x1a, 0x17, 0xc5, 0xfe,
  0x13, 0x10, 0x23, 0x3f, 0xf1, 0xd6, 0x4e, 0xf7, 0xe4, 0x21, 0x15, 0xf9,
  0x1f, 0x1b, 0xb1, 0xf9, 0xdd, 0xc5, 0xef, 0x0b, 0xef, 0x13, 0xeb, 0xe7,
  0xce, 0xcd, 0xf8, 0xff, 0xe8, 0xfc, 0x1c, 0xdc, 0x15, 0xe9, 0xf8, 0x11,
  0xe4, 0x20, 0x1c, 0xcb, 0xe1, 0xf0, 0x02, 0xd8, 0xf5, 0xfa, 0x16, 0xf7,
  0xf6, 0x14, 0x1e, 0x4a, 0x7f, 0x47, 0x40, 0x0f, 0xed, 0x0b, 0xdc, 0xd4,
  0xc2, 0x03, 0x09, 0xcd, 0x36, 0xf4, 0x29, 0xd3, 0xe5, 0x0c, 0xdf, 0xe1,
  0x13, 0x06, 0x39, 0xfd, 0x0b, 0x32, 0x48, 0x33, 0x07, 0xf5, 0x05, 0xc5,
  0xd4, 0x21, 0xbc, 0xe1, 0x04, 0xfe, 0x2d, 0x18, 0x05, 0x39, 0x1a, 0x30,
  0xae, 0xa9, 0x97, 0xc7, 0xf4, 0xd6, 0x9a, 0x91, 0xc1, 0xcb, 0xe4, 0xef,
  0x31, 0xe6, 0xdd, 0xd5, 0xe4, 0xfe, 0xe6, 0xdd, 0x1e, 0xd7, 0x0e, 0x1b,
  0xf5, 0xea, 0x0a, 0xf3, 0xeb, 0xf3, 0xf2, 0x03, 0x0d, 0xf7, 0x12, 0xe9,
  0xd4, 0xcc, 0xe9, 0x1d, 0xf7, 0xe6, 0x26, 0x45, 0x1d, 0x3b, 0x24, 0x0a,
  0xdd, 0xef, 0x0b, 0xec, 0xd8, 0xd7, 0x16, 0x34, 0xfd, 0xe2, 0x42, 0x41,
  0x37, 0x33, 0xf5, 0x2c, 0xd7, 0x3c, 0x26, 0xdd, 0xc6, 0x4e, 0xd8, 0x33,
  0x27, 0x15, 0x0a, 0xe9, 0xe5, 0x4c, 0xf5, 0x46, 0x0a, 0xf5, 0xfa, 0x13,
  0x81, 0x44, 0x2b, 0x1f, 0xc4, 0x10, 0x16, 0x5c, 0x4b, 0x45, 0x5e, 0xf6,
  0xb8, 0xde, 0xf0, 0xe7, 0x89, 0xdc, 0xff, 0x1d, 0x08, 0xb9, 0xf5, 0x41,
  0x24, 0x1e, 0xf7, 0x1e, 0xe9, 0x2a, 0xe4, 0xe3, 0xda, 0x33, 0xc2, 0xe7,
  0x2e, 0xe6, 0x2d, 0x37, 0x1e, 0x38, 0x4c, 0xe7, 0xf6, 0xfa, 0xb4, 0xf1,
  0x9d, 0x1a, 0x28, 0x1f, 0x10, 0xee, 0x35, 0x63, 0x79, 0x0c, 0x2a, 0xfb,
  0xc3, 0x90, 0xcb, 0xbf, 0xf6, 0x10, 0xfe, 0xe7, 0xe9, 0xe1, 0x2e, 0x5e,
  0x5b, 0x41, 0xbd, 0x05, 0xbc, 0xe3, 0xc4, 0xe7, 0xd5, 0xaa, 0x2b, 0x22,
  0xfc, 0xd6, 0xf8, 0x17, 0x3f, 0xf7, 0x33, 0xed, 0xdf, 0xfd, 0xc9, 0x03,
  0x13, 0x20, 0x2c, 0x28, 0x11, 0xef, 0x1d, 0x4c, 0x19, 0x26, 0xfc, 0x06,
  0xe7, 0xc0, 0x12, 0xa7, 0xca, 0xed, 0xcd, 0xe3, 0xdc, 0xa4, 0x1c, 0x3b,
  0x17, 0xde, 0x02, 0xf8, 0x3a, 0x10, 0x00, 0x1c, 0xe9, 0x4b, 0xa2, 0xf0,
  0x56, 0xf6, 0x3c, 0xdd, 0xd0, 0x26, 0x10, 0xf4, 0x0a, 0x26, 0x1f, 0xfa,
  0x1e, 0x39, 0x05, 0xe8, 0x2c, 0xda, 0x3b, 0xde, 0xc7, 0xf8, 0x58, 0xf7,
  0x41, 0x34, 0x21, 0xe7, 0xbf, 0xfb, 0xdb, 0xc4, 0x40, 0x02, 0x02, 0x06,
  0xf8, 0x0f, 0x0c, 0x06, 0x08, 0x70, 0x14, 0x31, 0x40, 0x7f, 0x1e, 0xfb,
  0x24, 0x01, 0xb2, 0xde, 0x8b, 0xe9, 0xd3, 0xc5, 0x19, 0x57, 0x20, 0x19,
  0x21, 0x11, 0x1f, 0x37, 0x0c, 0x3a, 0xa5, 0xcb, 0x85, 0xbd, 0x14, 0xb4,
  0x05, 0x54, 0xec, 0x28, 0x6d, 0x2f, 0x50, 0x56, 0x10, 0xf6, 0xe5, 0xc5,
  0xa7, 0xb2, 0x47, 0xda, 0x4a, 0x68, 0x42, 0x55, 0x27, 0x6c, 0x19, 0x1d,
  0x45, 0x60, 0xd6, 0xeb, 0xcf, 0x26, 0x14, 0x11, 0x36, 0xf2, 0x23, 0x29,
  0xe2, 0x07, 0x13, 0x0a, 0xef, 0x50, 0xe9, 0xdb, 0xfc, 0x09, 0x20, 0xbd,
  0x2d, 0x19, 0xf7, 0x55, 0x36, 0x1d, 0x0b, 0xe9, 0xbc, 0x54, 0xc9, 0xf5,
  0x2e, 0xee, 0xce, 0xca, 0x1a, 0xe7, 0xd6, 0x3a, 0x1a, 0x26, 0x2a, 0xe4,
  0xdf, 0x1a, 0xcf, 0xe6, 0x39, 0xff, 0xe6, 0xf8, 0x09, 0xf8, 0xf1, 0x50,
  0x45, 0x38, 0x3c, 0xf4, 0x0a, 0x04, 0xaa, 0xb9, 0xd0, 0xbd, 0xd0, 0xb9,
  0xe0, 0x29, 0x0a, 0x0c, 0xc9, 0x14, 0x25, 0xf4, 0xfc, 0xef, 0xe7, 0xe3,
  0xef, 0x13, 0xf5, 0xff, 0x2b, 0x00, 0x07, 0xce, 0x04, 0x40, 0x14, 0x14,
  0x3e, 0x1c, 0x46, 0x2d, 0x3e, 0x10, 0xd7, 0x48, 0x18, 0xff, 0xf0, 0xcd,
  0x9d, 0x11, 0xa9, 0xec, 0xd5, 0xca, 0x20, 0xfc, 0x27, 0x12, 0x3b, 0x07,
  0xf9, 0xeb, 0xe1, 0xf9, 0xbe, 0xe8, 0x23, 0x00, 0xf6, 0xd1, 0x1e, 0xe8,
  0xf9, 0xe6, 0x57, 0xf9, 0xfe, 0x01, 0xaf, 0xd3, 0x2c, 0xa5, 0xe7, 0x0f,
  0xa0, 0x9d, 0xd1, 0x9a, 0xe1, 0x81, 0x26, 0xae, 0x07, 0x31, 0x20, 0xfc,
  0xb7, 0x03, 0x10, 0x03, 0x1d, 0x1f, 0x0a, 0x18, 0xfd, 0xf5, 0x6f, 0x16,
  0x14, 0x0b, 0x10, 0x08, 0xc3, 0x15, 0x1b, 0x31, 0x08, 0x0a, 0xe6, 0x07,
  0x00, 0x1a, 0xfc, 0x11, 0x02, 0x12, 0x16, 0x1d, 0xfa, 0xe6, 0x13, 0xe5,
  0xd6, 0xce, 0x02, 0xf0, 0x11, 0xe5, 0xa6, 0x2c, 0x29, 0x28, 0x40, 0x01,
  0x44, 0x43, 0x05, 0x02, 0x45, 0x02, 0x06, 0x32, 0x20, 0xfc, 0x40, 0x20,
  0x1b, 0xe9, 0x41, 0xec, 0xfd, 0x42, 0xde, 0xe6, 0xfd, 0xe4, 0xf8, 0xc4,
  0xeb, 0xed, 0xf4, 0xdf, 0x57, 0xf1, 0x51, 0xbd, 0xd3, 0x18, 0xa3, 0xec,
  0x24, 0xe2, 0x29, 0xcf, 0xc1, 0xfd, 0x6c, 0x53, 0x32, 0x1e, 0x2c, 0xc7,
  0xaa, 0x2f, 0xb6, 0xdd, 0x5b, 0xff, 0x0c, 0xc3, 0xc0, 0x1d, 0x62, 0x03,
  0x43, 0x11, 0x24, 0x13, 0x4d, 0x30, 0xc0, 0xd3, 0x3e, 0x03, 0x2b, 0xed,
  0xff, 0x0c, 0x3a, 0xe9, 0x20, 0x1e, 0x12, 0xb7, 0xb9, 0xd6, 0x81, 0xf0,
  0xfb, 0xd8, 0x1b, 0x2f, 0x23, 0x2c, 0xe9, 0x59, 0x12, 0xfd, 0x30, 0xa5,
  0x91, 0xc5, 0xbe, 0xd3, 0x23, 0xce, 0x3f, 0x08, 0x2a, 0x4d, 0x1e, 0x45,
  0xdc, 0x09, 0x2e, 0x9d, 0xd1, 0xfb, 0xf8, 0xfb, 0x0c, 0xc8, 0x21, 0x2d,
  0x32, 0x4c, 0xe4, 0x47, 0x10, 0x39, 0x3d, 0x21, 0x1f, 0xdf, 0x1f, 0x23,
  0x37, 0x0a, 0x07, 0xfa, 0xcf, 0x01, 0xfc, 0x06, 0x2d, 0x22, 0x42, 0xda,
  0xdf, 0xeb, 0xc1, 0xea, 0x0a, 0xec, 0x0b, 0x24, 0xd7, 0x39, 0xff, 0x0b,
  0x09, 0xe9, 0x1b, 0x0b, 0xe6, 0x34, 0x16, 0x04, 0xf4, 0x18, 0xfd, 0xc3,
  0xb9, 0xe9, 0x15, 0xff, 0x0e, 0x2c, 0x07, 0x17, 0xdf, 0xf2, 0x15, 0x24,
  0xf7, 0xe6, 0xed, 0xc8, 0xf2, 0x04, 0x17, 0xd8, 0x2f, 0x37, 0x3c, 0x1e,
  0xee, 0xdb, 0xd6, 0xf6, 0x34, 0x05, 0x09, 0xd1, 0xc6, 0xed, 0xad, 0x1d,
  0x24, 0x42, 0x40, 0x39, 0x44, 0x01, 0xcb, 0x0b, 0x52, 0x3c, 0xe7, 0xf3,
  0xca, 0xf9, 0xf0, 0xfa, 0x26, 0x27, 0x0a, 0x20, 0xfc, 0xfc, 0xf7, 0xe0,
  0x27, 0x08, 0xda, 0x0e, 0xf1, 0x2d, 0x81, 0xf9, 0x26, 0xf6, 0x0b, 0x0a,
  0x24, 0xea, 0xcf, 0x02, 0x37, 0x21, 0x14, 0xfe, 0xf9, 0x0e, 0xa3, 0xe4,
  0x0a, 0xe1, 0x18, 0xfc, 0x34, 0xc9, 0x27, 0xfe, 0xe3, 0x23, 0xe0, 0xee,
  0x33, 0xf6, 0xce, 0xe3, 0xf4, 0xc1, 0x1b, 0xfe, 0x96, 0x34, 0xb1, 0x03,
  0x22, 0xd0, 0x0f, 0x0c, 0xf2, 0xd9, 0x36, 0x16, 0x17, 0xf6, 0x20, 0x07,
  0xa4, 0xef, 0xa7, 0xc4, 0x15, 0x09, 0xc8, 0xc9, 0xc8, 0x07, 0xda, 0xff,
  0xec, 0xc2, 0xd8, 0x02, 0xe2, 0xa6, 0xe1, 0xf0, 0xcf, 0xe4, 0xce, 0xd4,
  0xda, 0xcd, 0x26, 0xd6, 0x34, 0x35, 0x4a, 0x2a, 0xfa, 0xf4, 0xf7, 0xe1,
  0x18, 0x41, 0x1f, 0xfe, 0xee, 0x34, 0xfb, 0x2f, 0x5b, 0x44, 0x4f, 0x20,
  0x7f, 0xd9, 0xb1, 0xfe, 0x28, 0x04, 0x1a, 0x06, 0xe2, 0x22, 0x38, 0x36,
  0x04, 0x42, 0x1d, 0x00, 0x46, 0x17, 0x96, 0xf7, 0x1a, 0x0e, 0x3c, 0x39,
  0x0e, 0x3a, 0xe6, 0x14, 0x11, 0x1c, 0xda, 0x1d, 0xfc, 0xf0, 0x01, 0x10,
  0x0b, 0x18, 0xfe, 0x03, 0xd2, 0x15, 0x0a, 0xef, 0x06, 0x12, 0x0e, 0x0d,
  0x0d, 0x16, 0xe6, 0x13, 0x41, 0x1a, 0xed, 0xd6, 0xb4, 0x26, 0xb0, 0x17,
  0x2a, 0x33, 0x21, 0x04, 0x26, 0xf0, 0x20, 0x01, 0x30, 0x29, 0x0d, 0xdb,
  0xce, 0xf5, 0xfe, 0xda, 0x0d, 0xe7, 0x3d, 0xee, 0x0c, 0x14, 0x08, 0xf0,
  0x03, 0x02, 0x2e, 0xf3, 0xe1, 0xdf, 0xea, 0xe0, 0xef, 0x20, 0x03, 0xe7,
  0x40, 0x3a, 0x28, 0x07, 0x4d, 0xee, 0x0c, 0xf5, 0xa8, 0x12, 0x3e, 0xf4,
  0xec, 0x16, 0xfa, 0x14, 0x10, 0xf5, 0x05, 0xee, 0x03, 0xef, 0xd6, 0xce,
  0xd0, 0xe4, 0x11, 0x05, 0x16, 0x1b, 0x3e, 0x10, 0x7f, 0x4c, 0xf9, 0x02,
  0x35, 0x43, 0xe4, 0xcc, 0xe2, 0xff, 0x22, 0xea, 0x11, 0x39, 0x3b, 0x0e,
  0x6e, 0x66, 0x3c, 0x36, 0x39, 0x34, 0xd2, 0xde, 0x96, 0xff, 0x54, 0xce,
  0xef, 0x24, 0x01, 0x27, 0x53, 0x20, 0x0f, 0xf4, 0x12, 0x1d, 0xf7, 0xd5,
  0xce, 0xe3, 0x1c, 0x01, 0xc6, 0x06, 0xdf, 0x1c, 0x07, 0xe6, 0xf6, 0xde,
  0xa9, 0x0a, 0xd1, 0xf3, 0x0e, 0xe5, 0xfd, 0xc0, 0x12, 0x1b, 0xfa, 0x4d,
  0x44, 0xf7, 0x07, 0x2e, 0xf7, 0x09, 0xd0, 0xaf, 0xd1, 0xef, 0x5c, 0xcb,
  0xe5, 0x1a, 0xfe, 0x12, 0x31, 0x1e, 0x1c, 0xd9, 0xde, 0xf6, 0x10, 0xf0,
  0xec, 0x13, 0x0d, 0xf2, 0x2b, 0x2b, 0x38, 0x1d, 0x33, 0x13, 0xfa, 0x09,
  0x35, 0x39, 0x18, 0x06, 0x19, 0x13, 0xd5, 0x33, 0x0c, 0x4d, 0x30, 0xee,
  0x1c, 0x51, 0xda, 0xe4, 0x2e, 0x1d, 0x28, 0xe5, 0xdf, 0x26, 0x15, 0xf0,
  0xff, 0xf7, 0x00, 0xdd, 0xd3, 0x19, 0xd9, 0x00, 0xf9, 0xf7, 0x04, 0xde,
  0xcf, 0xf2, 0xfe, 0xd9, 0xe9, 0xda, 0xde, 0xc1, 0xad, 0x07, 0xd5, 0xda,
  0xea, 0xe3, 0xfe, 0xd9, 0xd6, 0xf8, 0xe0, 0xe6, 0x1e, 0x12, 0xee, 0xd7,
  0xc4, 0x43, 0xc7, 0xe0, 0xfb, 0xde, 0xef, 0xb0, 0xbd, 0xe4, 0x57, 0xe5,
  0x0a, 0x08, 0x10, 0xf9, 0xfb, 0xff, 0xf8, 0x09, 0x08, 0xf5, 0x1b, 0xf5,
  0xea, 0x14, 0x4f, 0x17, 0xf1, 0x06, 0xf6, 0xf6, 0xfb, 0x3e, 0xf6, 0xc2,
  0xea, 0xef, 0xdc, 0xc7, 0xca, 0xfc, 0xc2, 0xd7, 0x46, 0x1e, 0x27, 0x13,
  0xbe, 0x31, 0xf4, 0x07, 0x24, 0xf3, 0x17, 0xf6, 0xef, 0x24, 0x7f, 0x11,
  0x3d, 0x12, 0x0a, 0x08, 0xc8, 0x2a, 0xfd, 0x29, 0xf8, 0xfc, 0x17, 0x2a,
  0x11, 0x23, 0x18, 0x3b, 0xd0, 0x01, 0xe2, 0x29, 0x1b, 0xea, 0x3b, 0xe0,
  0xf8, 0xf2, 0xfe, 0x20, 0xfc, 0xf0, 0xda, 0xd9, 0x38, 0xec, 0x17, 0x6a,
  0x47, 0xc3, 0x7f, 0x49, 0xe1, 0x67, 0x04, 0x1c, 0x3a, 0x05, 0xb1, 0xd5,
  0x0e, 0x2a, 0x09, 0x38, 0x3d, 0x45, 0x10, 0xfa, 0xed, 0x30, 0xbe, 0x1a,
  0x15, 0xe9, 0xcd, 0x02, 0xf4, 0xf1, 0x00, 0x29, 0x1a, 0x17, 0x54, 0x3c,
  0x05, 0x0c, 0xd3, 0x15, 0x06, 0xeb, 0xf1, 0x01, 0xfb, 0xd1, 0xbd, 0xf1,
  0xf6, 0xa2, 0xfe, 0xe9, 0xac, 0xfa, 0xf2, 0x18, 0x21, 0x25, 0xb6, 0x15,
  0x1f, 0xde, 0xf2, 0x21, 0x3e, 0xf7, 0xca, 0xff, 0x26, 0xd6, 0x31, 0xee,
  0x39, 0x1b, 0x07, 0x0b, 0x11, 0xec, 0x1f, 0x0b, 0xfe, 0x34, 0x0e, 0x1a,
  0x03, 0x27, 0xff, 0x15, 0xfc, 0x15, 0xe1, 0xf9, 0xe1, 0xeb, 0x3e, 0xfc,
  0xf9, 0x00, 0xfe, 0x0f, 0xe8, 0xf7, 0x00, 0x09, 0xef, 0xfa, 0xeb, 0x18,
  0x16, 0xe9, 0x26, 0x0d, 0x39, 0xce, 0x29, 0x1a, 0xf2, 0xdc, 0x17, 0x03,
  0xef, 0x18, 0xf8, 0xe9, 0x24, 0xfc, 0x1a, 0xf3, 0x07, 0x28, 0x0a, 0x15,
  0x23, 0x0f, 0x15, 0xe1, 0xf3, 0x1f, 0xe3, 0x21, 0x20, 0xf1, 0x2e, 0x1f,
  0x07, 0x1b, 0x33, 0xfb, 0xf9, 0x4f, 0x10, 0x43, 0x3a, 0x45, 0xd4, 0x28,
  0xe9, 0xdf, 0x1a, 0xf0, 0xe7, 0x03, 0x23, 0x20, 0xe7, 0x07, 0xf8, 0x1a,
  0x22, 0x2a, 0x81, 0x24, 0xea, 0xef, 0xe8, 0xe2, 0x0b, 0xd3, 0x03, 0x0f,
  0xf5, 0xda, 0x18, 0x1c, 0xfa, 0xdc, 0xe9, 0x1a, 0x1f, 0x3f, 0x22, 0x2c,
  0x10, 0xf6, 0x15, 0x33, 0x2c, 0x29, 0x2d, 0x41, 0x52, 0x37, 0xc9, 0x4a,
  0x09, 0xab, 0xea, 0xcd, 0xa6, 0xbe, 0xea, 0xb0, 0xe0, 0xde, 0xef, 0xf3,
  0xf8, 0x19, 0xc3, 0x1f, 0x14, 0xf9, 0xd3, 0x26, 0x08, 0x88, 0xf5, 0xef,
  0xc7, 0xf1, 0xcc, 0xe5, 0xf4, 0xb8, 0xc4, 0xf0, 0x19, 0xf4, 0xe8, 0x41,
  0x49, 0xbe, 0x03, 0x25, 0x06, 0x02, 0x15, 0x2f, 0x27, 0x30, 0xd2, 0x1b,
  0x19, 0xfb, 0x19, 0xda, 0xd8, 0x22, 0x0b, 0x07, 0x46, 0xff, 0xe8, 0x02,
  0x0a, 0x1c, 0xbd, 0xfa, 0x3b, 0x38, 0x32, 0x26, 0x1b, 0x6c, 0x1e, 0xde,
  0x4d, 0x1a, 0xed, 0x20, 0x00, 0x35, 0x27, 0x0e, 0x30, 0x13, 0xfc, 0xe3,
  0xfc, 0xee, 0xc4, 0xa7, 0x0b, 0xf7, 0x21, 0xc2, 0xf4, 0x1b, 0x0e, 0xdb,
  0x2e, 0x13, 0x13, 0x24, 0x5c, 0x38, 0x04, 0x65, 0x46, 0x11, 0x56, 0x48,
  0x3d, 0x14, 0x2c, 0x2e, 0xc8, 0x17, 0x09, 0xe1, 0xaf, 0x58, 0xb1, 0xa1,
  0x47, 0x0a, 0xf3, 0xb6, 0xd9, 0xfb, 0x48, 0xe6, 0xee, 0xe7, 0xab, 0x8d,
  0x9e, 0xf0, 0x81, 0xcd, 0x91, 0x87, 0xdf, 0xc4, 0xa2, 0xd3, 0x0e, 0xb8,
  0xd4, 0xed, 0xc8, 0xed, 0x0b, 0x35, 0xf7, 0xe2, 0xd1, 0xf3, 0xf4, 0xd0,
  0xc6, 0xd0, 0x06, 0xce, 0xfd, 0xe5, 0xed, 0xd6, 0xe1, 0x61, 0xf2, 0xfe,
  0x0a, 0xeb, 0xdf, 0x06, 0xd9, 0x06, 0x06, 0x24, 0x16, 0xfc, 0x35, 0xf6,
  0xca, 0xde, 0x07, 0x1b, 0x55, 0xed, 0x44, 0x25, 0x0b, 0xfd, 0x28, 0x43,
  0x02, 0xf6, 0x2e, 0xe2, 0xb3, 0x5d, 0xf8, 0xe4, 0x06, 0x04, 0xe5, 0xfe,
  0x04, 0x17, 0x31, 0x3e, 0xc2, 0x01, 0xfd, 0xf0, 0x0f, 0x0e, 0xe8, 0xce,
  0xf8, 0xfd, 0xd5, 0xdf, 0xef, 0xf0, 0xdc, 0xcf, 0x03, 0xeb, 0x04, 0x07,
  0xed, 0x13, 0xec, 0xe8, 0x0a, 0xec, 0x0d, 0xde, 0xe6, 0xf5, 0x41, 0xf2,
  0xe9, 0xfc, 0xf3, 0x1e, 0x0c, 0x0d, 0x1d, 0xed, 0x15, 0xfe, 0xde, 0x01,
  0xe9, 0x0e, 0x25, 0xee, 0x1c, 0xf6, 0xf1, 0xe3, 0xf6, 0xed, 0xdd, 0xe9,
  0xee, 0xbe, 0xea, 0xc5, 0xf6, 0xe1, 0x17, 0x01, 0x3f, 0x3e, 0x4b, 0x14,
  0x0b, 0x3d, 0xe3, 0x08, 0x4d, 0x19, 0x38, 0xf2, 0xec, 0x0f, 0x7f, 0x0f,
  0xe5, 0x1f, 0x07, 0xf3, 0x0a, 0x35, 0xd3, 0xf6, 0x20, 0x09, 0xff, 0xf1,
  0xde, 0xf9, 0xec, 0xfb, 0x1f, 0x15, 0xf9, 0xf4, 0xf3, 0x18, 0xcd, 0x0a,
  0x00, 0xe7, 0xfb, 0xfb, 0x00, 0xf8, 0x44, 0x27, 0x0c, 0x38, 0x18, 0x0c,
  0x18, 0x45, 0xf4, 0x05, 0x1f, 0x21, 0x04, 0x19, 0xef, 0x26, 0x15, 0xf6,
  0xe9, 0xee, 0xdc, 0xf0, 0xf5, 0xfa, 0xcc, 0x09, 0xeb, 0xf9, 0xf0, 0xd0,
  0xd8, 0xe7, 0xce, 0xeb, 0xfb, 0x00, 0x0f, 0x23, 0x00, 0x00, 0x07, 0x26,
  0xf4, 0x17, 0xfa, 0xe8, 0x0e, 0x21, 0xd8, 0xf2, 0xb5, 0x04, 0xe2, 0xe6,
  0xf9, 0x19, 0x06, 0xd9, 0xdb, 0x06, 0xdf, 0x05, 0xe9, 0xdd, 0xee, 0xf4,
  0x02, 0xef, 0xf5, 0xe1, 0x86, 0x06, 0xd1, 0x14, 0xcf, 0xc5, 0x25, 0x20,
  0x19, 0x22, 0x32, 0x12, 0x04, 0xf2, 0xed, 0x17, 0x09, 0x04, 0x46, 0x1f,
  0xe9, 0x36, 0xf0, 0x3d, 0x0f, 0x12, 0xc7, 0x11, 0xe3, 0xd6, 0xd4, 0xeb,
  0xc8, 0xe2, 0xfd, 0x04, 0xb5, 0xcc, 0x07, 0x1b, 0x19, 0xf8, 0x22, 0x03,
  0x34, 0xf3, 0x1e, 0x13, 0x2e, 0x29, 0x2b, 0xef, 0x0e, 0xfc, 0x15, 0x20,
  0x28, 0x21, 0x15, 0x19, 0xe9, 0xf2, 0x05, 0x0e, 0xd7, 0xf0, 0x08, 0x0e,
  0x13, 0xec, 0xfd, 0x1f, 0x12, 0xe3, 0xfc, 0xfe, 0x12, 0xfe, 0xef, 0x0f,
  0x04, 0x09, 0x35, 0x2b, 0x10, 0x15, 0x0a, 0x24, 0x2b, 0x18, 0x28, 0xfa,
  0x97, 0x0e, 0xc6, 0xc1, 0xcf, 0x33, 0xb7, 0xbf, 0xd7, 0xd1, 0xd7, 0x18,
  0xf2, 0xfe, 0x81, 0xcb, 0x3c, 0x1f, 0x0a, 0x37, 0x2d, 0x29, 0xf3, 0xf7,
  0x09, 0x03, 0xff, 0xe3, 0x11, 0xe7, 0x08, 0xfb, 0xf7, 0x30, 0x22, 0x10,
  0x33, 0x0f, 0x00, 0x3e, 0x28, 0xf9, 0xe9, 0xd5, 0x01, 0xdd, 0x42, 0xf3,
  0xe5, 0x06, 0x13, 0xed, 0xe5, 0x44, 0xfd, 0xed, 0x29, 0xfe, 0x40, 0x29,
  0xfe, 0x23, 0x06, 0x00, 0x09, 0x1e, 0xf4, 0x36, 0x4f, 0x0d, 0x4c, 0xf5,
  0xfc, 0x2b, 0x0c, 0xef, 0xd3, 0x09, 0x31, 0xda, 0xec, 0x10, 0xe2, 0x1f,
  0x36, 0x37, 0xee, 0x05, 0xe7, 0xf3, 0xa8, 0x81, 0xa7, 0x93, 0x21, 0xb5,
  0x0b, 0x43, 0x07, 0x0d, 0x0b, 0x40, 0x1c, 0x12, 0x14, 0x00, 0x13, 0xf7,
  0xda, 0xf7, 0x4d, 0xf7, 0xd4, 0xb6, 0xc9, 0x0c, 0x32, 0x07, 0x07, 0xfe,
  0xbd, 0xd3, 0xdc, 0xed, 0x28, 0xea, 0x0c, 0x01, 0xd2, 0xec, 0xce, 0xeb,
  0x08, 0x4a, 0xda, 0xc4, 0xb7, 0x0c, 0xad, 0xc0, 0xf8, 0xed, 0x17, 0xe3,
  0x07, 0x14, 0x09, 0x24, 0xde, 0x69, 0x17, 0xfb, 0x36, 0xef, 0x09, 0x1c,
  0xf0, 0x2d, 0x29, 0xf0, 0xc9, 0xf3, 0x0f, 0xdd, 0xf7, 0x20, 0x1c, 0x0f,
  0x15, 0xdd, 0x0d, 0x21, 0x13, 0x1b, 0xf7, 0xfc, 0x2d, 0xcd, 0x01, 0x0f,
  0x20, 0xc4, 0x18, 0x2f, 0x23, 0x09, 0x25, 0x16, 0x11, 0xef, 0x3d, 0xf1,
  0xf9, 0x0e, 0x0d, 0x37, 0x7f, 0xdc, 0x31, 0xff, 0xc8, 0x1a, 0x06, 0x06,
  0x25, 0xda, 0xbe, 0x01, 0xc9, 0xeb, 0xec, 0xf2, 0xc3, 0x0b, 0x05, 0x1b,
  0xef, 0xcc, 0x23, 0xfb, 0x0e, 0xeb, 0xdb, 0x09, 0xce, 0xc1, 0xc6, 0x06,
  0x00, 0xec, 0x34, 0x00, 0xe1, 0x0e, 0xc0, 0x16, 0x0e, 0xf6, 0xc9, 0xc9,
  0xb2, 0xd8, 0xd5, 0x28, 0x62, 0xfb, 0x57, 0x21, 0xf5, 0x1d, 0xa3, 0xf3,
  0xd6, 0xc7, 0xd4, 0xbe, 0xf9, 0xe9, 0x0e, 0xee, 0xf7, 0xf7, 0xef, 0xf2,
  0x26, 0x12, 0x1e, 0x3c, 0xf4, 0xf8, 0xd9, 0x0e, 0x10, 0x0e, 0x04, 0x54,
  0x61, 0xe3, 0x56, 0x40, 0x08, 0x51, 0xff, 0x13, 0x26, 0xfb, 0xe2, 0x1e,
  0xfc, 0xff, 0x13, 0x24, 0x55, 0xfe, 0x08, 0x1c, 0x03, 0x47, 0xf6, 0x1f,
  0x14, 0x39, 0xde, 0x13, 0x0a, 0x04, 0xfa, 0xda, 0xf8, 0xf5, 0xde, 0xe8,
  0x12, 0xd7, 0xee, 0xd6, 0xd3, 0x00, 0x53, 0x06, 0x32, 0x42, 0x43, 0x20,
  0x04, 0x1e, 0xdb, 0xe5, 0x3b, 0x18, 0x09, 0x0d, 0xd2, 0x10, 0x24, 0x1e,
  0x00, 0xff, 0xfa, 0x1b, 0x40, 0x0e, 0x2f, 0x0a, 0x04, 0x04, 0x19, 0xf2,
  0xe9, 0x0a, 0xfc, 0xe3, 0x37, 0x27, 0x35, 0x13, 0x2c, 0x0e, 0x2f, 0x1c,
  0x15, 0x11, 0xfd, 0xfd, 0xef, 0x03, 0x01, 0x16, 0xda, 0x37, 0xfc, 0x0f,
  0x20, 0x29, 0x16, 0x02, 0x30, 0x07, 0xfc, 0xf2, 0xf4, 0x02, 0xe9, 0xe7,
  0x92, 0xf6, 0xbf, 0xd8, 0x29, 0xcd, 0x0e, 0x22, 0xcd, 0xdc, 0x9c, 0xae,
  0x82, 0x91, 0xe3, 0x81, 0xfd, 0x0f, 0xef, 0x2a, 0x23, 0x1f, 0x1b, 0x0f,
  0xf7, 0x13, 0xe5, 0x16, 0x01, 0x0e, 0xf1, 0x0c, 0x0d, 0xff, 0x1a, 0x13,
  0x18, 0x19, 0x19, 0xf7, 0x1c, 0x15, 0xfd, 0xec, 0xee, 0xef, 0x0d, 0x01,
  0xee, 0xee, 0xe8, 0xfa, 0x1a, 0xee, 0x15, 0xe7, 0xc9, 0x0c, 0xc7, 0xc1,
  0xe0, 0xe7, 0x27, 0xb1, 0xd8, 0x0b, 0xd4, 0x04, 0xfc, 0xee, 0x13, 0x18,
  0xdf, 0xee, 0x1c, 0x1d, 0x22, 0x19, 0xe2, 0xf5, 0xf5, 0xbb, 0xee, 0xe1,
  0xc1, 0xd3, 0xed, 0xec, 0xce, 0xea, 0xec, 0x0d, 0x2b, 0x07, 0xec, 0xeb,
  0xee, 0xf3, 0x1c, 0xf1, 0xd2, 0x30, 0x10, 0x04, 0x00, 0x08, 0xec, 0xd1,
  0xe6, 0xfb, 0x1c, 0xe9, 0x09, 0x35, 0x41, 0x00, 0x03, 0xec, 0x08, 0x1e,
  0x0a, 0x1a, 0x36, 0x0a, 0xcd, 0x06, 0x02, 0xf8, 0x17, 0xf3, 0xf1, 0xd4,
  0x81, 0xe6, 0xb0, 0xd3, 0x03, 0xd9, 0x24, 0x1f, 0x11, 0x05, 0xff, 0x2a,
  0x1c, 0x25, 0xfe, 0x0b, 0xe8, 0x03, 0xda, 0xd3, 0x0b, 0xfb, 0x17, 0x07,
  0x05, 0xfd, 0x0f, 0x0f, 0x26, 0x3e, 0x25, 0x12, 0x1c, 0x28, 0xd8, 0x0c,
  0x29, 0x06, 0x2c, 0xf1, 0xc9, 0x16, 0x12, 0x22, 0x05, 0x01, 0x21, 0xd6,
  0xe6, 0x19, 0x0e, 0x0a, 0x32, 0xfe, 0x21, 0x27, 0xed, 0x2a, 0x22, 0x1c,
  0x1a, 0xeb, 0xf7, 0xda, 0xe1, 0xd3, 0xf3, 0x11, 0xf4, 0xfe, 0x1e, 0x1b,
  0x16, 0x20, 0xf4, 0x1b, 0x02, 0xf6, 0x12, 0xe8, 0xe2, 0x0b, 0xf2, 0xf6,
  0x21, 0xd1, 0x0d, 0x15, 0xfd, 0xf1, 0xbc, 0xfe, 0x08, 0xfd, 0x39, 0xd8,
  0xe8, 0xcd, 0xcd, 0x08, 0x11, 0xde, 0x01, 0xe8, 0xf3, 0x11, 0xc7, 0x12,
  0xec, 0xe7, 0x09, 0xc8, 0xc5, 0xdf, 0xe8, 0xf7, 0x07, 0xdb, 0x1c, 0x16,
  0xee, 0x0f, 0xdf, 0x19, 0x1c, 0xf6, 0x17, 0x04, 0x07, 0xd2, 0xff, 0x09,
  0x16, 0x33, 0x19, 0x25, 0x04, 0xfb, 0xe6, 0x03, 0x35, 0x22, 0x3b, 0x34,
  0x7f, 0xc7, 0x30, 0x09, 0x0d, 0x40, 0x1b, 0xf7, 0xfd, 0x2c, 0xb1, 0x05,
  0xfd, 0x17, 0x12, 0xf4, 0x08, 0xdb, 0xe1, 0x02, 0x23, 0xed, 0x2b, 0x1c,
  0x19, 0x2c, 0xdb, 0x01, 0xf4, 0x0f, 0xe9, 0x29, 0x1d, 0xcb, 0x24, 0x0d,
  0x02, 0x0b, 0xf5, 0x1c, 0x12, 0xf0, 0xd6, 0x0e, 0x07, 0x16, 0x16, 0x05,
  0xf4, 0xdc, 0xef, 0x08, 0xe9, 0xfa, 0xef, 0x21, 0x18, 0x0a, 0xb2, 0x05,
  0x0c, 0xf3, 0x04, 0x0a, 0xc6, 0x2c, 0x04, 0x0d, 0x0e, 0xff, 0xfc, 0xf4,
  0xd1, 0xef, 0x26, 0xed, 0xd5, 0x04, 0xd1, 0x2b, 0x40, 0x12, 0xf4, 0xdc,
  0xdf, 0xea, 0xfa, 0xbb, 0x10, 0xfe, 0xc1, 0x06, 0xf0, 0x03, 0x0d, 0xeb,
  0xe4, 0x3a, 0xda, 0xf4, 0xc5, 0xd1, 0xf9, 0xfd, 0x3e, 0x26, 0x4f, 0xef,
  0xe6, 0xeb, 0xbd, 0x12, 0x12, 0x6d, 0x1b, 0xe0, 0xee, 0xf7, 0xae, 0xf0,
  0xb9, 0xcf, 0x0a, 0xb4, 0xe6, 0x1b, 0xe5, 0xe3, 0x0d, 0xdc, 0x34, 0xe3,
  0xec, 0xf2, 0xf0, 0x27, 0x16, 0x3c, 0x81, 0x15, 0xe5, 0xba, 0xe8, 0x0a,
  0xb6, 0xe8, 0x03, 0x00, 0x0e, 0xda, 0x2f, 0x36, 0x42, 0xfc, 0xd1, 0x29,
  0x18, 0x33, 0x15, 0x04, 0xe1, 0x38, 0xfe, 0x1f, 0xf2, 0x17, 0xf7, 0xee,
  0xb9, 0x0d, 0xf3, 0xdb, 0xfd, 0x20, 0x0d, 0xf0, 0x28, 0x13, 0xde, 0x1a,
  0x3f, 0xf6, 0x2f, 0x18, 0x1d, 0xff, 0xc9, 0x1e, 0x03, 0xe8, 0x1f, 0xdd,
  0xde, 0x38, 0xd3, 0x08, 0x4e, 0x1e, 0xed, 0xe9, 0xfb, 0x3a, 0x40, 0x22,
  0x3a, 0x0e, 0x09, 0x22, 0x4d, 0x2b, 0x47, 0x21, 0x1b, 0xf6, 0x26, 0xd5,
  0xd1, 0x1c, 0x26, 0xe6, 0x20, 0x0a, 0x24, 0xf2, 0x17, 0x24, 0xe3, 0x1f,
  0x33, 0xc5, 0x32, 0x15, 0x05, 0x1a, 0x72, 0x36, 0xf6, 0xdc, 0xe9, 0xfe,
  0xc8, 0x0f, 0xe0, 0x01, 0x2d, 0x23, 0xe2, 0xde, 0xff, 0xe1, 0xfd, 0xf2,
  0x1b, 0xf8, 0xfd, 0x51, 0x4f, 0x0d, 0x30, 0x0f, 0x0f, 0x38, 0xc6, 0xc0,
  0xf8, 0xd9, 0x25, 0xa9, 0x4a, 0x1c, 0xee, 0xe7, 0xf6, 0x20, 0xfd, 0xee,
  0xe4, 0xec, 0x2c, 0x16, 0x14, 0x25, 0x77, 0x02, 0xc4, 0xe8, 0xd6, 0x04,
  0x2f, 0x09, 0xd5, 0xcc, 0xac, 0x04, 0xb3, 0xf9, 0xd7, 0xed, 0xc2, 0xd4,
  0x06, 0x9f, 0xc4, 0xac, 0x1c, 0xd6, 0xaa, 0x81, 0xa2, 0xc6, 0xec, 0xe8,
  0x51, 0x18, 0x09, 0x13, 0xcb, 0xdf, 0xc7, 0x0f, 0x0a, 0x07, 0xd3, 0xf1,
  0x01, 0xe6, 0x0e, 0x18, 0x0b, 0xe4, 0x1c, 0xf5, 0x07, 0xcc, 0x0b, 0xcf,
  0xb4, 0xa6, 0xfa, 0x18, 0xe0, 0xcb, 0xf4, 0x28, 0x4f, 0x2d, 0x14, 0x36,
  0x29, 0x18, 0x25, 0x99, 0x86, 0xef, 0xd7, 0x39, 0xe7, 0xe4, 0x45, 0x1a,
  0x29, 0x48, 0x40, 0x61, 0xeb, 0xfe, 0xfb, 0x24, 0x1c, 0x27, 0x25, 0x0f,
  0x1c, 0x21, 0xf3, 0xfe, 0xea, 0xf1, 0x2a, 0x09, 0x1a, 0x17, 0x2e, 0xf5,
  0x22, 0x23, 0x09, 0x25, 0x39, 0xf7, 0x14, 0x08, 0x14, 0x05, 0x0f, 0x13,
  0x0b, 0xe9, 0x14, 0xf5, 0xf5, 0x13, 0xe6, 0x03, 0x01, 0x2a, 0x17, 0x1c,
  0x0b, 0x06, 0x08, 0xf8, 0xe7, 0x22, 0x1b, 0xf5, 0xe0, 0x3f, 0xa2, 0xe3,
  0x12, 0xc2, 0xd8, 0x9a, 0xb7, 0xcc, 0xed, 0xc1, 0x21, 0x43, 0x0b, 0x15,
  0x04, 0x41, 0xec, 0xfc, 0x40, 0x16, 0x1f, 0xdf, 0xad, 0xda, 0x54, 0xfb,
  0x03, 0x0e, 0x20, 0x12, 0x4b, 0x1e, 0x01, 0x11, 0x2d, 0x0f, 0x0f, 0xdd,
  0xde, 0x14, 0x4f, 0xef, 0xd7, 0x00, 0xdb, 0xd6, 0xcd, 0x38, 0x92, 0x81,
  0xc1, 0xd6, 0xd4, 0xda, 0x36, 0x3a, 0xc9, 0x1c, 0xe6, 0x19, 0xf5, 0x03,
  0x00, 0x2d, 0xfb, 0xe0, 0x01, 0xff, 0xd8, 0xbf, 0xc1, 0xe9, 0x46, 0xdd,
  0x24, 0x30, 0x37, 0x30, 0x32, 0xed, 0x20, 0x08, 0x21, 0x20, 0x17, 0xee,
  0x04, 0x11, 0x19, 0x22, 0xf9, 0xa4, 0xb0, 0x9b, 0xb3, 0x28, 0xb6, 0xc1,
  0x9e, 0x8d, 0xef, 0xb3, 0xce, 0xaf, 0x1a, 0xe9, 0x0f, 0x06, 0x0a, 0xc2,
  0xe3, 0x30, 0x03, 0xff, 0x59, 0xd2, 0x3e, 0x23, 0x30, 0x0d, 0x73, 0x3e,
  0x0d, 0xd7, 0xe2, 0x0c, 0xf3, 0x21, 0x20, 0x00, 0xe0, 0x0d, 0xee, 0xd8,
  0x12, 0x16, 0x05, 0xf0, 0xee, 0xe1, 0x09, 0xe7, 0xcc, 0x53, 0xb3, 0xe8,
  0x13, 0xb9, 0xdc, 0xa3, 0x99, 0xe9, 0x0e, 0xf2, 0x08, 0x41, 0x4e, 0xf2,
  0xfd, 0x59, 0x06, 0x0e, 0x29, 0x11, 0x3c, 0x11, 0xf4, 0x0d, 0x74, 0x1f,
  0xe4, 0x0e, 0x0e, 0x4c, 0x7d, 0x13, 0x0f, 0xee, 0x2d, 0x4a, 0xc8, 0xfc,
  0xe1, 0xe8, 0xe6, 0xba, 0x27, 0x4d, 0x25, 0xfd, 0xfa, 0x7f, 0xbf, 0x0a,
  0x1e, 0x28, 0xf6, 0xe2, 0xdb, 0x0b, 0x00, 0x2a, 0x0a, 0x39, 0x0e, 0x05,
  0x1a, 0x47, 0x1e, 0x03, 0x34, 0x1b, 0x10, 0xf0, 0xd3, 0x08, 0x63, 0xe8,
  0xe3, 0xdc, 0xed, 0xfe, 0x2a, 0x11, 0xff, 0xf4, 0xe1, 0x1d, 0xb2, 0xc8,
  0xdf, 0xd9, 0x3c, 0xb1, 0x34, 0x43, 0x22, 0x41, 0x4a, 0x05, 0x12, 0xff,
  0xe0, 0x3f, 0x36, 0x01, 0xe4, 0xf7, 0x2b, 0xf3, 0xf5, 0x0c, 0x0b, 0x1e,
  0x50, 0x0d, 0xf8, 0x2f, 0xef, 0x04, 0x2b, 0x35, 0x35, 0xef, 0xf4, 0x0e,
  0xf9, 0x19, 0x01, 0x2e, 0xfd, 0x05, 0x14, 0x43, 0x17, 0x1c, 0x1a, 0x39,
  0x21, 0x1f, 0xe1, 0x13, 0xd6, 0xef, 0xcf, 0xf4, 0x10, 0x09, 0x81, 0xc3,
  0xce, 0xee, 0xd8, 0xb5, 0xf4, 0xc7, 0x21, 0xcf, 0xca, 0xc3, 0xcd, 0xec,
  0x3c, 0x14, 0x03, 0x0e, 0xd8, 0xd4, 0xd4, 0xd8, 0x8e, 0x84, 0x20, 0x99,
  0x3d, 0x0b, 0xf5, 0x3e, 0x12, 0x11, 0x5c, 0x3e, 0xfb, 0xf7, 0xe0, 0xe9,
  0xbf, 0xc4, 0x7e, 0xda, 0x06, 0x1d, 0x1c, 0xbe, 0xf9, 0x36, 0xa3, 0xda,
  0x2a, 0x09, 0x39, 0x20, 0x1e, 0x43, 0x02, 0x2a, 0xf0, 0x02, 0xf9, 0xc9,
  0x20, 0x17, 0xd9, 0xb4, 0xe1, 0x01, 0xd6, 0xbb, 0xe9, 0x15, 0xa0, 0xbd,
  0x4b, 0xeb, 0xf4, 0x41, 0xdb, 0xf7, 0x44, 0x4b, 0xfa, 0x13, 0x10, 0xd4,
  0x12, 0x06, 0x5d, 0x1c, 0xe2, 0x1b, 0x23, 0xfe, 0x02, 0x0f, 0x10, 0xcd,
  0x3f, 0x1a, 0x1c, 0x28, 0xe1, 0xfb, 0xb5, 0x3b, 0x02, 0x4e, 0x42, 0xd7,
  0xc8, 0x3a, 0x25, 0xf4, 0x27, 0xff, 0xf8, 0xfe, 0xab, 0xfb, 0x38, 0x27,
  0xf5, 0x08, 0x16, 0xd3, 0xba, 0xbf, 0xb8, 0x08, 0x0a, 0xb7, 0xfe, 0xfc,
  0xe1, 0xc6, 0xd4, 0xcd, 0xf3, 0xce, 0x27, 0x08, 0xe8, 0x0e, 0x22, 0xe7,
  0xfb, 0xf9, 0xe0, 0xdf, 0xbf, 0xe9, 0x3b, 0xd7, 0xf0, 0x7f, 0x7a, 0x19,
  0x33, 0x24, 0x01, 0x13, 0x5a, 0x37, 0x09, 0x10, 0xa7, 0x26, 0x0b, 0xf7,
  0x31, 0x1d, 0x12, 0x13, 0x4e, 0xe3, 0xf2, 0xc5, 0x3b, 0xe6, 0x27, 0xd1,
  0xfd, 0x23, 0xb4, 0xda, 0x15, 0x3c, 0xee, 0x41, 0xf3, 0x46, 0x23, 0xeb,
  0x22, 0x1e, 0xd9, 0xc2, 0x9c, 0xf9, 0xfe, 0xe7, 0x0f, 0x03, 0x1f, 0x6b,
  0x70, 0xf1, 0x13, 0x2e, 0x3d, 0x32, 0xe9, 0xd0, 0xc2, 0xc6, 0x0d, 0xd4,
  0xf9, 0x15, 0x38, 0x2c, 0x18, 0x0f, 0x28, 0x12, 0x21, 0x20, 0x01, 0xfd,
  0xf1, 0x18, 0xb0, 0x1e, 0xfd, 0x19, 0xec, 0x27, 0x02, 0x63, 0xf2, 0xed,
  0x38, 0xd1, 0xdd, 0xf4, 0xa6, 0xff, 0x24, 0xcd, 0xef, 0xd2, 0xe5, 0xaf,
  0xa9, 0x9d, 0xb9, 0xfc, 0xe5, 0xe4, 0x31, 0xf3, 0x13, 0x27, 0x38, 0x34,
  0x15, 0x09, 0x3d, 0xbc, 0xe9, 0xde, 0xdc, 0xdf, 0x15, 0x0c, 0x55, 0x46,
  0x1f, 0x1d, 0xe0, 0x1c, 0x04, 0x49, 0x28, 0x44, 0xf8, 0x26, 0x3a, 0x58,
  0x05, 0x36, 0x28, 0xda, 0x3b, 0x32, 0xfe, 0x2e, 0x12, 0x09, 0x0b, 0xf3,
  0xec, 0xfb, 0x77, 0x28, 0xd9, 0xf2, 0x37, 0x23, 0x53, 0x29, 0xbe, 0x49,
  0xc9, 0x98, 0xd0, 0x98, 0xa1, 0xd5, 0xd6, 0x29, 0x9f, 0xbb, 0x1b, 0x44,
  0x70, 0x16, 0xd0, 0x4e, 0xdd, 0xf1, 0xda, 0x20, 0xed, 0xca, 0xf6, 0xb2,
  0xcb, 0xf6, 0xf3, 0xfb, 0xda, 0xcd, 0x8b, 0xa5, 0xd9, 0xe7, 0xb4, 0x4f,
  0x78, 0xe2, 0x7f, 0x50, 0xe8, 0x4d, 0xf0, 0x22, 0xf4, 0xcb, 0xaa, 0xd8,
  0x00, 0xf4, 0xd7, 0x07, 0x01, 0xc5, 0x31, 0x45, 0xf7, 0xed, 0x33, 0x68,
  0x2f, 0xe4, 0xad, 0xe0, 0xe7, 0x1f, 0x22, 0xd5, 0xc3, 0x2e, 0xcc, 0xc4,
  0x33, 0xef, 0xfb, 0x07, 0x01, 0x07, 0xd2, 0xf2, 0xe7, 0x9d, 0xd7, 0xab,
  0xd4, 0x03, 0xbb, 0xd6, 0x97, 0x9e, 0xcb, 0xb3, 0xa8, 0xa5, 0x2d, 0xca,
  0x2f, 0x02, 0x09, 0x26, 0xff, 0x42, 0x10, 0x04, 0x1d, 0x19, 0x23, 0x0c,
  0xf7, 0x28, 0x7f, 0x1b, 0xfe, 0xf0, 0x0a, 0xf1, 0x07, 0x38, 0xec, 0xdf,
  0x1c, 0x40, 0xfe, 0x11, 0xe6, 0x2d, 0x2b, 0x0e, 0xf9, 0xce, 0xf4, 0xcb,
  0xd5, 0x0a, 0x99, 0xe2, 0xc1, 0x9b, 0x12, 0xac, 0xba, 0xf3, 0xf7, 0xea,
  0x2e, 0x25, 0x32, 0x0a, 0xf9, 0x4e, 0x97, 0x0c, 0x44, 0x0a, 0x41, 0x1d,
  0xff, 0x17, 0x41, 0x2f, 0xe7, 0x3d, 0xfe, 0xfd, 0xf7, 0x41, 0xf0, 0xe2,
  0x22, 0x17, 0x05, 0xec, 0xe1, 0x03, 0x00, 0x0f, 0xfb, 0xf4, 0x04, 0xf1,
  0xd5, 0x01, 0xeb, 0x21, 0xf8, 0xc5, 0x05, 0xf3, 0xb4, 0xec, 0x28, 0x07,
  0x19, 0x49, 0x29, 0x1a, 0x28, 0x53, 0x1f, 0xfc, 0x04, 0x02, 0x26, 0x02,
  0xfc, 0x23, 0x42, 0x2b, 0x82, 0xea, 0xff, 0xff, 0x04, 0x00, 0x00, 0x00,
  0x80, 0x00, 0x00, 0x00, 0xf7, 0xf9, 0xff, 0xff, 0x35, 0x00, 0x00, 0x00,
  0xcb, 0x00, 0x00, 0x00, 0x09, 0x02, 0x00, 0x00, 0x21, 0xfd, 0xff, 0xff,
  0xd7, 0x01, 0x00, 0x00, 0xea, 0x01, 0x00, 0x00, 0x47, 0x00, 0x00, 0x00,
  0x07, 0x01, 0x00, 0x00, 0x7d, 0xfe, 0xff, 0xff, 0x66, 0xfc, 0xff, 0xff,
  0x5b, 0xff, 0xff, 0xff, 0x23, 0x01, 0x00, 0x00, 0x40, 0x00, 0x00, 0x00,
  0x51, 0x00, 0x00, 0x00, 0x78, 0xfd, 0xff, 0xff, 0xf3, 0x02, 0x00, 0x00,
  0xbe, 0x00, 0x00, 0x00, 0x1f, 0x00, 0x00, 0x00, 0x40, 0x02, 0x00, 0x00,
  0x97, 0x00, 0x00, 0x00, 0x13, 0x00, 0x00, 0x00, 0x5e, 0xfe, 0xff, 0xff,
  0x22, 0xfe, 0xff, 0xff, 0x5d, 0x01, 0x00, 0x00, 0xd0, 0x01, 0x00, 0x00,
  0x44, 0x01, 0x00, 0x00, 0x59, 0x02, 0x00, 0x00, 0xd5, 0x02, 0x00, 0x00,
  0x47, 0xff, 0xff, 0xff, 0x75, 0x02, 0x00, 0x00, 0x0f, 0x02, 0x00, 0x00,
  0x0e, 0xeb, 0xff, 0xff, 0x04, 0x00, 0x00, 0x00, 0x00, 0x14, 0x00, 0x00,
  0x0b, 0xfc, 0x0e, 0x0b, 0x05, 0x1f, 0xf8, 0x04, 0xff, 0x0d, 0x13, 0xfc,
  0x09, 0x10, 0xf8, 0x00, 0x19, 0x15, 0x0d, 0xff, 0xff, 0x13, 0x05, 0x06,
  0xf1, 0xf7, 0xf9, 0x10, 0xf3, 0x00, 0xf9, 0x04, 0xf8, 0xfa, 0x08, 0xfb,
  0xf5, 0xfe, 0x07, 0xfa, 0xf6, 0x0d, 0xf2, 0xeb, 0xe9, 0xe0, 0xe5, 0xf5,
  0x00, 0xf3, 0x02, 0xf7, 0xff, 0xe2, 0xfd, 0x06, 0xef, 0xef, 0xfb, 0xe4,
  0x11, 0xdf, 0x09, 0xf7, 0xf9, 0x1b, 0xff, 0x0a, 0xf2, 0x06, 0x17, 0xea,
  0x0e, 0x0b, 0xe9, 0xef, 0x03, 0xdf, 0xf6, 0x12, 0x02, 0xfd, 0x17, 0xf5,
  0xfa, 0x14, 0xf5, 0x03, 0x02, 0x13, 0xdc, 0xf8, 0xca, 0xf6, 0xf8, 0x0e,
  0xd6, 0xf0, 0x1e, 0x1c, 0xe6, 0x16, 0x19, 0xef, 0x1d, 0x0c, 0xe7, 0xe6,
  0x13, 0x21, 0xe4, 0x0d, 0xff, 0x1a, 0xe4, 0x21, 0xe6, 0xf4, 0xf3, 0xe8,
  0xfa, 0x18, 0x20, 0x0f, 0x20, 0x0b, 0xf9, 0xfd, 0x07, 0x1d, 0x0b, 0xf6,
  0x02, 0xe5, 0x16, 0x06, 0x09, 0xfb, 0xfa, 0x20, 0x0a, 0xf4, 0x06, 0x02,
  0xcc, 0x1d, 0x2d, 0x09, 0x0d, 0x09, 0xdd, 0x0e, 0xfb, 0xf6, 0x08, 0x1c,
  0xec, 0x01, 0x06, 0xf2, 0xf6, 0x08, 0x01, 0xf3, 0xe6, 0xd9, 0xf9, 0x14,
  0xd7, 0xdf, 0xd0, 0xe4, 0xe9, 0xca, 0x0f, 0xda, 0x02, 0xee, 0xe0, 0xe3,
  0x03, 0xd7, 0x01, 0xdc, 0xfe, 0xf9, 0xbc, 0x06, 0x0d, 0xeb, 0xe7, 0xe6,
  0xeb, 0xf7, 0x0c, 0x16, 0xe6, 0xeb, 0x02, 0x01, 0x1d, 0x05, 0xf0, 0xf7,
  0x1c, 0x08, 0x03, 0xef, 0xdb, 0x0c, 0x00, 0x1f, 0x08, 0xfa, 0xf1, 0xe0,
  0x0c, 0xef, 0x29, 0x0a, 0xf3, 0x14, 0xff, 0xd5, 0xfb, 0x07, 0x16, 0x03,
  0xfc, 0x10, 0xec, 0x17, 0xf0, 0xee, 0xef, 0x11, 0x14, 0x06, 0xff, 0xe6,
  0xfe, 0x15, 0xde, 0x01, 0x0b, 0x25, 0xfa, 0xf6, 0x08, 0xfb, 0x21, 0x0e,
  0x0c, 0x1f, 0xf3, 0xfb, 0xf9, 0xfc, 0x12, 0x10, 0x09, 0xf0, 0x0a, 0x1f,
  0xfa, 0xfe, 0x0c, 0x02, 0x11, 0x02, 0xf4, 0x11, 0x36, 0xfa, 0xf0, 0x29,
  0xfb, 0xf3, 0xf8, 0x02, 0x11, 0xce, 0x03, 0xff, 0x1f, 0xfd, 0xff, 0x04,
  0xff, 0xfd, 0xfc, 0xe6, 0xf2, 0x04, 0xe7, 0x14, 0xfa, 0xf9, 0x04, 0x10,
  0x08, 0xf6, 0xfd, 0xef, 0x40, 0xff, 0x0b, 0x01, 0x08, 0xf3, 0xf6, 0x00,
  0x06, 0x1b, 0xfc, 0x01, 0xf2, 0x15, 0x13, 0x11, 0xec, 0x06, 0x0d, 0xfc,
  0x02, 0x13, 0xf7, 0xf7, 0xfb, 0x01, 0xfb, 0x00, 0x25, 0x0a, 0xf7, 0xf1,
  0x0c, 0x24, 0xd4, 0x1c, 0x0d, 0x09, 0xf9, 0xed, 0x0b, 0x22, 0x05, 0x2b,
  0x03, 0x09, 0xf6, 0x02, 0x09, 0x11, 0x12, 0x07, 0xfb, 0x02, 0x06, 0x13,
  0x0f, 0xec, 0x1a, 0x0e, 0x09, 0x19, 0x02, 0xf0, 0x04, 0x0a, 0xf9, 0x24,
  0x04, 0x20, 0x00, 0x09, 0xf4, 0xf6, 0x2c, 0x16, 0x25, 0xfa, 0x09, 0x0f,
  0x0e, 0xf8, 0x0d, 0x1f, 0xfc, 0x07, 0x0b, 0x08, 0x08, 0x00, 0x0b, 0x13,
  0x14, 0x14, 0x12, 0xfb, 0xf2, 0x0e, 0xe2, 0x02, 0xeb, 0x16, 0x01, 0xf7,
  0x23, 0x1c, 0xfb, 0xfe, 0x07, 0x10, 0xb5, 0x08, 0xf1, 0x07, 0x0e, 0xe3,
  0xf5, 0x13, 0xee, 0x14, 0x02, 0x05, 0x04, 0x18, 0x0b, 0x04, 0x0e, 0xfb,
  0xfa, 0x0a, 0xf3, 0xf6, 0x0b, 0x14, 0x0d, 0x03, 0x1e, 0xf6, 0x0c, 0x02,
  0xfa, 0xef, 0x00, 0xf6, 0xfe, 0xfb, 0xfa, 0xec, 0xff, 0x18, 0xfd, 0x09,
  0xfc, 0x0a, 0xff, 0x0a, 0x0e, 0x0f, 0xe7, 0xf8, 0x0b, 0x38, 0x10, 0x00,
  0xe7, 0x1c, 0xe7, 0x05, 0x07, 0x14, 0xfd, 0x1e, 0x04, 0xe0, 0xe7, 0x0e,
  0xf2, 0x0c, 0x11, 0x09, 0xf2, 0x1e, 0xfd, 0x1e, 0x21, 0x06, 0xe5, 0x10,
  0x06, 0x0e, 0x07, 0xe7, 0x02, 0x1b, 0xf5, 0x0e, 0x01, 0x15, 0xff, 0xf8,
  0x10, 0x08, 0x13, 0x20, 0x15, 0x01, 0xff, 0x20, 0x15, 0x10, 0xfe, 0xe1,
  0xf2, 0xb1, 0xf2, 0xf6, 0xde, 0xfa, 0x01, 0xf3, 0xeb, 0x09, 0xfe, 0x01,
  0x05, 0x02, 0xcf, 0xff, 0xa8, 0x06, 0xe2, 0x14, 0x03, 0xd1, 0xec, 0xd0,
  0xf8, 0xec, 0xe4, 0xfb, 0xff, 0x23, 0xfc, 0xfa, 0xee, 0xf1, 0x40, 0xff,
  0x11, 0xf4, 0xe0, 0xf9, 0x01, 0x34, 0x09, 0x12, 0xcd, 0x20, 0x27, 0x32,
  0xef, 0x26, 0x08, 0xf3, 0x0c, 0xee, 0x32, 0x17, 0x46, 0xe4, 0xf7, 0x09,
  0xff, 0xff, 0xd9, 0xf3, 0xf9, 0xfc, 0x11, 0xf1, 0x00, 0xe1, 0xef, 0xf1,
  0xfb, 0xfe, 0xfc, 0x01, 0x00, 0xf1, 0xeb, 0x0a, 0xf5, 0xe6, 0xeb, 0xf8,
  0xe7, 0xfe, 0xd7, 0xe6, 0xde, 0x0b, 0xea, 0x01, 0xfd, 0xfe, 0x19, 0x09,
  0xee, 0x04, 0xf1, 0xf4, 0x07, 0x05, 0xea, 0xf1, 0x0f, 0xf9, 0xcc, 0xfa,
  0xf9, 0xf5, 0xe0, 0x07, 0xf1, 0xf1, 0xe6, 0xdc, 0x02, 0x0c, 0x04, 0x0a,
  0xff, 0xde, 0x00, 0xf9, 0xf9, 0xdc, 0xee, 0x08, 0xeb, 0xa6, 0x8a, 0xf9,
  0xef, 0xe2, 0xdb, 0xd4, 0xe2, 0xed, 0xe8, 0xb9, 0x15, 0xe3, 0xbe, 0x11,
  0xa8, 0xc4, 0xff, 0xe0, 0xed, 0x08, 0xeb, 0xd0, 0x00, 0xeb, 0xfa, 0xfe,
  0xed, 0x16, 0xee, 0x11, 0xee, 0xea, 0xf5, 0xfa, 0xf5, 0x0f, 0xfc, 0xee,
  0x12, 0x16, 0xd2, 0xea, 0x05, 0x10, 0xeb, 0x35, 0xb3, 0x2c, 0xe2, 0xd7,
  0x00, 0xf8, 0x15, 0x19, 0x0d, 0xf8, 0xc1, 0x35, 0x01, 0x03, 0xdd, 0xdd,
  0xff, 0xe2, 0xe4, 0xf8, 0xed, 0xf2, 0xf5, 0x04, 0xfb, 0xe3, 0x03, 0xd3,
  0x0f, 0x0f, 0xe7, 0xfe, 0xfa, 0xeb, 0x05, 0xf4, 0xd9, 0xed, 0x21, 0x27,
  0x11, 0xeb, 0x0c, 0xf2, 0xde, 0xe4, 0x06, 0x18, 0xd8, 0x15, 0x02, 0xf4,
  0xf7, 0xe9, 0xdc, 0xda, 0xff, 0xd0, 0xe7, 0xfa, 0x00, 0xf2, 0xca, 0x03,
  0xdb, 0xed, 0xc6, 0xe0, 0xf6, 0xfb, 0xfc, 0x16, 0x07, 0xf0, 0x08, 0x04,
  0xe2, 0xdb, 0xdf, 0x0f, 0xf1, 0xae, 0x06, 0x26, 0xe5, 0xe7, 0x16, 0xf8,
  0x02, 0xe9, 0xf1, 0x01, 0xf1, 0xea, 0x0d, 0xfc, 0xf2, 0xed, 0x10, 0x07,
  0x03, 0xe3, 0xfe, 0x06, 0xf9, 0xe5, 0x09, 0xf6, 0xd6, 0xe8, 0xf9, 0x39,
  0xef, 0x1a, 0xf9, 0x16, 0xfa, 0xec, 0x00, 0xff, 0x0c, 0x07, 0xc6, 0xea,
  0x18, 0x0a, 0x06, 0x11, 0xf0, 0x26, 0xcd, 0xed, 0x29, 0x0e, 0x0e, 0x23,
  0xd6, 0x0f, 0xf1, 0x3a, 0xeb, 0xec, 0xd3, 0xee, 0xe6, 0xf4, 0xf2, 0x06,
  0xff, 0xd6, 0xfb, 0xe6, 0xd7, 0xe7, 0xfd, 0x01, 0xfb, 0xc3, 0xfd, 0x0d,
  0xe9, 0x13, 0xda, 0xf3, 0xd2, 0xfe, 0xd1, 0x38, 0xf9, 0xdc, 0x08, 0x11,
  0xf2, 0xf6, 0xf8, 0x0e, 0xe3, 0x06, 0xec, 0xff, 0x00, 0x04, 0xd3, 0xee,
  0x07, 0xd5, 0xf5, 0xff, 0x0b, 0xe9, 0xe8, 0x04, 0xf8, 0x0c, 0xe3, 0xfc,
  0x0e, 0xfb, 0xec, 0xfb, 0x18, 0xf1, 0xfe, 0x10, 0x1a, 0x27, 0x00, 0xfc,
  0xfc, 0x08, 0xf8, 0xfb, 0x04, 0xee, 0x00, 0x0f, 0x15, 0xf6, 0x0f, 0x0a,
  0x0c, 0x04, 0xff, 0x13, 0x17, 0xeb, 0x01, 0x03, 0x1e, 0x13, 0xf7, 0x05,
  0xfa, 0x01, 0x20, 0x0f, 0x04, 0xea, 0x05, 0x14, 0xf7, 0x0a, 0x13, 0xe7,
  0x2b, 0x02, 0xed, 0xf4, 0x0f, 0xfe, 0x0a, 0xfd, 0xfe, 0xf0, 0x3d, 0xfd,
  0x09, 0xfb, 0x5e, 0xe6, 0x1c, 0x0b, 0x00, 0xf0, 0x0e, 0xfc, 0x15, 0x1b,
  0xe9, 0xe4, 0xf8, 0x21, 0xf1, 0x07, 0xef, 0xfe, 0x06, 0xe8, 0xfd, 0xf4,
  0xf9, 0xe0, 0x04, 0xe5, 0x00, 0xec, 0x16, 0x16, 0x00, 0xfd, 0x05, 0xe8,
  0xff, 0xeb, 0xf2, 0x06, 0xf8, 0xe8, 0x16, 0x00, 0xec, 0xee, 0x1a, 0x17,
  0x09, 0x18, 0x03, 0x04, 0x1c, 0x02, 0x04, 0xfd, 0x1f, 0xe8, 0xfb, 0x04,
  0x09, 0xe6, 0xf2, 0x0b, 0xfc, 0x04, 0xfc, 0x04, 0x06, 0x03, 0xf3, 0x18,
  0x0a, 0xfc, 0x1b, 0x12, 0xb9, 0x0d, 0xe3, 0x02, 0x0a, 0x28, 0xff, 0xfe,
  0xfd, 0xe3, 0x25, 0x0d, 0x15, 0xfb, 0xfc, 0xfc, 0xd5, 0xdd, 0x02, 0x03,
  0x18, 0xe4, 0x05, 0xea, 0x06, 0xf3, 0xec, 0x1a, 0x00, 0x12, 0x02, 0xeb,
  0xe4, 0xe4, 0xf8, 0xee, 0x0e, 0x01, 0x18, 0xff, 0x02, 0xfc, 0x00, 0x09,
  0x09, 0xbc, 0x16, 0x0c, 0xff, 0xd4, 0x08, 0xf0, 0x08, 0x0b, 0x03, 0x1c,
  0xf7, 0xfb, 0xf6, 0xf6, 0xfe, 0x04, 0x00, 0xf4, 0xf3, 0x06, 0xda, 0xf5,
  0xfc, 0xda, 0xfa, 0x10, 0x0b, 0xd2, 0x09, 0x0a, 0xfe, 0xf0, 0xfc, 0x17,
  0x0b, 0xf4, 0x0c, 0xd6, 0x06, 0xfb, 0x10, 0xfe, 0x02, 0xff, 0x14, 0xfd,
  0xf9, 0x1b, 0xff, 0x0b, 0x07, 0xf2, 0xed, 0xe0, 0xfd, 0xf5, 0x09, 0x07,
  0xed, 0xf7, 0xfa, 0x07, 0xef, 0xdd, 0x0a, 0xfa, 0xf7, 0xf0, 0x1b, 0xd9,
  0xf2, 0xf1, 0x12, 0x13, 0x04, 0xf2, 0xf3, 0xf4, 0xdf, 0xea, 0x01, 0x05,
  0x11, 0x18, 0x0d, 0x0c, 0x04, 0xfa, 0xfa, 0xf3, 0xf4, 0xf8, 0xef, 0x01,
  0x1d, 0x12, 0xff, 0x05, 0x0a, 0xf1, 0x0e, 0xef, 0x29, 0xf8, 0xf4, 0xf7,
  0x07, 0x20, 0x0b, 0xf4, 0xfd, 0x06, 0x1f, 0xf6, 0x02, 0xe3, 0x1e, 0xec,
  0x0d, 0x10, 0xee, 0x14, 0x10, 0x09, 0x03, 0xf8, 0x08, 0x07, 0x13, 0xfa,
  0xcb, 0x10, 0x08, 0x04, 0xf7, 0x01, 0x08, 0xfb, 0x0f, 0x0a, 0xf3, 0xf2,
  0xf9, 0xef, 0x03, 0xf8, 0xf7, 0x0d, 0x27, 0xfd, 0x0b, 0x04, 0xfc, 0x0c,
  0x08, 0x05, 0x07, 0x0c, 0x13, 0xf0, 0xf3, 0x08, 0x11, 0x14, 0xf4, 0x26,
  0xef, 0x0e, 0xe4, 0x0a, 0xe6, 0x28, 0x1d, 0x0f, 0xd3, 0x11, 0x04, 0xf7,
  0xf8, 0xf4, 0x00, 0xe7, 0xf1, 0xc4, 0xfb, 0xe7, 0xee, 0xf6, 0x0a, 0xea,
  0xec, 0xfc, 0x0a, 0xe2, 0xf6, 0xfd, 0xf8, 0xf7, 0x15, 0xe4, 0x05, 0xf8,
  0xee, 0xe7, 0xfb, 0xe4, 0xfe, 0xd6, 0xf6, 0x0b, 0x0a, 0xf1, 0xfe, 0xe4,
  0x0d, 0xcb, 0xe0, 0xf5, 0xef, 0x03, 0xef, 0x07, 0xe2, 0xf3, 0xf5, 0x06,
  0x05, 0xf3, 0xe9, 0xd9, 0x12, 0x06, 0xfe, 0x00, 0xf0, 0xbf, 0xfd, 0xf8,
  0x04, 0xff, 0xda, 0x03, 0x27, 0x11, 0x0a, 0xd7, 0x04, 0x2e, 0x03, 0xf3,
  0x01, 0x02, 0xf7, 0xfd, 0xed, 0x02, 0xfb, 0xfb, 0x0d, 0x40, 0xe1, 0x18,
  0xec, 0x13, 0x0d, 0x08, 0xe0, 0x10, 0xfc, 0x09, 0x2b, 0xe8, 0xf2, 0x0c,
  0x07, 0xf0, 0x00, 0x10, 0x0c, 0x29, 0xf8, 0xe3, 0x3a, 0xf5, 0xf7, 0xf1,
  0xc5, 0x00, 0xf6, 0xf8, 0x00, 0x10, 0x15, 0xe3, 0x05, 0xf7, 0x45, 0xee,
  0x14, 0xfa, 0x15, 0x1a, 0x10, 0xea, 0x05, 0xd5, 0xf9, 0xdc, 0xea, 0xe4,
  0xe5, 0xfb, 0xfe, 0xe3, 0xf3, 0xd1, 0xf6, 0xea, 0xea, 0xe6, 0x0c, 0x0d,
  0xf3, 0xe9, 0x0a, 0xde, 0xf9, 0xeb, 0xf7, 0xf9, 0xf7, 0xcb, 0xdf, 0xe8,
  0xef, 0xf4, 0xfb, 0xf7, 0xed, 0xd6, 0xcf, 0xfb, 0x06, 0xe1, 0xc5, 0xe6,
  0xf0, 0xed, 0x15, 0xf8, 0xe3, 0xf9, 0xdc, 0xc9, 0xf3, 0xe1, 0xbf, 0xec,
  0xf7, 0xf7, 0xec, 0xc0, 0xf6, 0xf3, 0xd4, 0xf1, 0xd9, 0xf1, 0xdc, 0xf3,
  0x01, 0xe1, 0xea, 0xd4, 0xc8, 0x08, 0xca, 0xea, 0xe7, 0xea, 0x0f, 0x03,
  0xe8, 0xeb, 0xc6, 0xdb, 0x0d, 0x05, 0xc1, 0x07, 0xd0, 0xf9, 0xc1, 0xf0,
  0xff, 0xfc, 0xec, 0xce, 0xd9, 0xe0, 0xc2, 0x20, 0xe9, 0xfb, 0xfb, 0x06,
  0xe5, 0xe1, 0xf1, 0xe1, 0xdc, 0xe9, 0x14, 0xeb, 0x05, 0x03, 0xda, 0x13,
  0xea, 0xec, 0xde, 0xf0, 0xd2, 0xfa, 0xed, 0xf1, 0xf1, 0xfc, 0xe4, 0xfa,
  0xf4, 0x17, 0xf0, 0xea, 0xf9, 0xe8, 0xef, 0xe7, 0x00, 0xdd, 0xe6, 0xe3,
  0xf8, 0xf9, 0xe9, 0xfc, 0xe5, 0xee, 0x14, 0xfc, 0xf3, 0xef, 0xea, 0xf7,
  0xf1, 0xe1, 0x08, 0xf7, 0xf2, 0xf0, 0xdf, 0xec, 0xe6, 0xfc, 0xeb, 0xea,
  0x0a, 0x05, 0x0a, 0x06, 0xfb, 0x33, 0x05, 0x06, 0x10, 0x17, 0x07, 0xf5,
  0xef, 0xfb, 0x0d, 0x12, 0x10, 0x03, 0xf1, 0xe0, 0x13, 0x17, 0x1a, 0xfa,
  0xe9, 0x0e, 0xf6, 0xf8, 0x03, 0xf4, 0x18, 0xf1, 0xf3, 0xd3, 0xf8, 0x06,
  0x1e, 0xe3, 0x11, 0xf5, 0xe9, 0x16, 0x06, 0xff, 0xef, 0xc6, 0xfc, 0x22,
  0xe9, 0xdd, 0xf1, 0x08, 0x10, 0xda, 0x0c, 0xfe, 0x0f, 0xeb, 0xdb, 0xcc,
  0x28, 0xfc, 0x14, 0xd0, 0xf3, 0xe7, 0xed, 0xfa, 0x11, 0x0b, 0xe0, 0x0c,
  0x03, 0x05, 0xfb, 0xf4, 0xf3, 0x04, 0x13, 0x03, 0xdc, 0xf7, 0x0a, 0xef,
  0x06, 0xf5, 0xfd, 0x12, 0x17, 0x06, 0x23, 0xe6, 0x00, 0xf2, 0xec, 0xfc,
  0x11, 0x22, 0x05, 0xe8, 0xf3, 0xd2, 0xf1, 0x0e, 0x04, 0x04, 0x0f, 0x0c,
  0xef, 0xfe, 0x13, 0x0f, 0xf8, 0x1d, 0x19, 0xf1, 0x0c, 0x1c, 0x06, 0x0e,
  0xfd, 0x11, 0x16, 0xf5, 0xf0, 0x0e, 0xe6, 0xf4, 0x10, 0x1c, 0x0d, 0x0a,
  0x0f, 0x04, 0x1d, 0x0b, 0xf7, 0xfd, 0x01, 0x00, 0xf9, 0xe8, 0x18, 0x0e,
  0xe2, 0xf0, 0x32, 0xf7, 0x03, 0x1e, 0xe6, 0x03, 0x0b, 0xfb, 0xfc, 0xe3,
  0xf9, 0x10, 0x14, 0x01, 0x1f, 0xf9, 0xec, 0x06, 0x14, 0x02, 0xf6, 0xfb,
  0x07, 0xf9, 0xff, 0x13, 0x01, 0x0a, 0xf3, 0x0e, 0x09, 0x0d, 0xe8, 0xb6,
  0x0f, 0xd5, 0xf5, 0x23, 0xec, 0xe2, 0x0b, 0xce, 0xf3, 0x03, 0x05, 0xfd,
  0x00, 0x17, 0x99, 0x01, 0x18, 0x03, 0x05, 0x08, 0x17, 0x0d, 0x13, 0x07,
  0xe2, 0xec, 0x06, 0x18, 0x04, 0xdf, 0x14, 0xc5, 0x10, 0x09, 0x21, 0xfd,
  0x1e, 0xe2, 0xc2, 0xd4, 0xf4, 0xf9, 0x14, 0x01, 0x0c, 0x0c, 0xf1, 0xee,
  0x05, 0x04, 0x12, 0x05, 0xe6, 0x0a, 0x1c, 0x0a, 0x03, 0xbf, 0x0d, 0xcb,
  0x05, 0x0c, 0x22, 0xe4, 0xf7, 0xf5, 0x08, 0x09, 0x0e, 0x0e, 0xe7, 0xdf,
  0xdc, 0x0e, 0xf7, 0x05, 0xf2, 0x0d, 0x02, 0xd6, 0x0d, 0x19, 0x07, 0xef,
  0x11, 0x01, 0x08, 0xda, 0xf7, 0xff, 0xfd, 0x05, 0x07, 0x01, 0xf8, 0xf6,
  0xe6, 0x0e, 0x0a, 0xf9, 0xf6, 0x11, 0xfd, 0xe0, 0xf9, 0xfc, 0xef, 0x05,
  0xef, 0xfd, 0xf1, 0x02, 0xfa, 0xdc, 0xf8, 0xe0, 0xea, 0xf4, 0x08, 0x0e,
  0xe2, 0x02, 0x14, 0x0e, 0x0a, 0xca, 0xef, 0xce, 0xfa, 0xa0, 0xfc, 0x08,
  0xe4, 0x09, 0x05, 0xe8, 0x0b, 0xea, 0x03, 0xf0, 0xf1, 0x00, 0xed, 0xfc,
  0xfa, 0xda, 0x13, 0xe6, 0xe1, 0xfe, 0xfa, 0x0b, 0xf6, 0x18, 0x0c, 0x1b,
  0x00, 0xd8, 0x16, 0xe3, 0xf2, 0xe4, 0xd7, 0x02, 0xff, 0xea, 0xbf, 0xe1,
  0xe4, 0x09, 0xf9, 0x1d, 0x08, 0x09, 0xf6, 0x01, 0x22, 0xed, 0x0b, 0x07,
  0x17, 0x24, 0xfd, 0x1b, 0x06, 0x09, 0xfa, 0x0d, 0x04, 0x16, 0x22, 0xf3,
  0x13, 0xfc, 0x19, 0x1b, 0x02, 0x1c, 0x01, 0xe5, 0xfc, 0x1f, 0x04, 0x0a,
  0x0b, 0x01, 0x02, 0xec, 0x06, 0xd9, 0x16, 0xf4, 0xf2, 0xf7, 0xf2, 0xf6,
  0xf2, 0xea, 0xe9, 0x09, 0xeb, 0xdf, 0x0b, 0x08, 0xcc, 0xd7, 0x09, 0x02,
  0xf5, 0xe4, 0xf8, 0xfd, 0xff, 0x01, 0xff, 0xe5, 0x15, 0x05, 0xff, 0xe7,
  0x1c, 0xe8, 0x00, 0xe8, 0xd0, 0xef, 0x02, 0xe0, 0xf1, 0xf3, 0xfa, 0x0a,
  0xfb, 0xfa, 0x0f, 0xeb, 0x08, 0xfe, 0x05, 0x09, 0xef, 0xf2, 0xec, 0x0d,
  0xea, 0x10, 0x25, 0xec, 0x0b, 0x10, 0x11, 0xff, 0x24, 0xf0, 0xfc, 0xf1,
  0xea, 0x06, 0xf3, 0xf0, 0x01, 0xff, 0x19, 0x08, 0xe2, 0x04, 0xf6, 0xe5,
  0x0d, 0xe6, 0x10, 0xf0, 0x08, 0xfe, 0x0b, 0x03, 0xf5, 0x0b, 0xee, 0xe7,
  0x08, 0x0f, 0x0d, 0xf1, 0x09, 0xed, 0x13, 0xf5, 0x0d, 0x05, 0x0f, 0x02,
  0xf3, 0x14, 0xff, 0x07, 0x08, 0x14, 0x09, 0x03, 0x1f, 0xf3, 0x1a, 0x15,
  0x01, 0x02, 0x09, 0x01, 0x0a, 0x0c, 0xf7, 0x04, 0x0e, 0xe5, 0x18, 0xf6,
  0xf5, 0xe2, 0xc6, 0xc6, 0xff, 0x15, 0xcf, 0xfe, 0xd4, 0x10, 0x0a, 0x08,
  0x2b, 0xe7, 0xf1, 0xef, 0xf2, 0x00, 0x0c, 0x0f, 0xff, 0x1e, 0x0b, 0xe3,
  0xfe, 0xed, 0x03, 0x1d, 0x27, 0x1b, 0x11, 0x10, 0xf3, 0x09, 0x0e, 0xdd,
  0x21, 0x26, 0xf8, 0xfa, 0xf0, 0x40, 0xf9, 0x22, 0xdc, 0x22, 0x10, 0xfb,
  0xd7, 0x01, 0x18, 0xef, 0xff, 0xf8, 0x19, 0x0c, 0x13, 0x06, 0xd4, 0x22,
  0x07, 0x04, 0x11, 0xeb, 0x14, 0x11, 0x20, 0x08, 0xd9, 0x16, 0x15, 0x0e,
  0xf0, 0xef, 0x08, 0xf2, 0x2d, 0xfd, 0xe9, 0xfb, 0x0f, 0xeb, 0xfc, 0xf2,
  0xed, 0x22, 0xdb, 0x1b, 0xfc, 0xec, 0x0c, 0x18, 0x05, 0x0f, 0xf2, 0xe7,
  0xfc, 0xd9, 0x0a, 0x0c, 0xeb, 0xe1, 0xf7, 0xf3, 0x01, 0xe7, 0xfc, 0xfb,
  0xf5, 0xf3, 0x00, 0xf6, 0x14, 0xf2, 0xfb, 0xf5, 0x04, 0x05, 0xeb, 0xef,
  0xf6, 0xfc, 0x08, 0x02, 0x09, 0x14, 0xe1, 0x0a, 0x08, 0x03, 0x02, 0xff,
  0x0a, 0x0d, 0x13, 0x1b, 0xf6, 0x07, 0xf9, 0xf8, 0x12, 0x1e, 0x0b, 0xea,
  0xda, 0xe5, 0x1c, 0x10, 0x21, 0xee, 0xf3, 0xfe, 0xe8, 0x05, 0x02, 0xfe,
  0x02, 0x03, 0xe8, 0x17, 0x09, 0x04, 0x18, 0x08, 0xfe, 0xeb, 0xfa, 0x0d,
  0xef, 0xe4, 0xfe, 0xfc, 0xec, 0x05, 0xff, 0xda, 0xf4, 0xfa, 0x0e, 0xfd,
  0x1c, 0x00, 0xec, 0x07, 0xe3, 0xef, 0x23, 0xf8, 0x04, 0xe5, 0x0b, 0xf2,
  0x00, 0xf1, 0x11, 0xf9, 0xe9, 0xf8, 0xfa, 0x15, 0x03, 0x02, 0x00, 0x05,
  0xdf, 0xf0, 0x0f, 0xe5, 0x1a, 0x0a, 0xee, 0x0f, 0xfa, 0xe2, 0xf8, 0xe6,
  0xed, 0x0d, 0x00, 0xdf, 0x08, 0xef, 0xe8, 0xe9, 0x13, 0x19, 0x18, 0x0d,
  0x02, 0x0d, 0x0f, 0xfd, 0x05, 0xf2, 0x00, 0x01, 0xfc, 0xdd, 0xef, 0xef,
  0x09, 0xed, 0x1c, 0xfe, 0xed, 0xf5, 0xde, 0xdc, 0xe5, 0xef, 0x08, 0xfb,
  0xfb, 0xfa, 0xe6, 0x33, 0x10, 0xff, 0x08, 0x0b, 0xd4, 0x15, 0x0c, 0xdf,
  0x08, 0xf3, 0xdf, 0xf8, 0xee, 0x04, 0xe4, 0xf6, 0x10, 0x21, 0x0a, 0xf9,
  0x06, 0xfa, 0x1f, 0x16, 0x03, 0xf5, 0x0c, 0x1a, 0xd9, 0x04, 0x0f, 0xed,
  0xe5, 0xe8, 0x07, 0x07, 0xf7, 0xe8, 0xd2, 0xdc, 0xef, 0xe7, 0x10, 0x0a,
  0xe1, 0xf3, 0xf7, 0xf1, 0x14, 0xdc, 0xf9, 0xf1, 0xfb, 0x12, 0xf8, 0xef,
  0xf9, 0xe9, 0x0a, 0xc4, 0xff, 0xf0, 0xed, 0xea, 0xe8, 0xb2, 0xef, 0xdb,
  0x21, 0xf2, 0xf9, 0xea, 0xef, 0x19, 0x08, 0xea, 0x00, 0xc3, 0x0a, 0x01,
  0xe7, 0xee, 0xee, 0x0a, 0xe7, 0x06, 0x12, 0xa2, 0x00, 0xfc, 0xfa, 0xbe,
  0xdc, 0xfe, 0xfd, 0xfe, 0xea, 0xcf, 0xba, 0xe6, 0xef, 0xef, 0xf3, 0x02,
  0x08, 0xd9, 0x02, 0xd8, 0xe1, 0xea, 0xfc, 0xf2, 0xd1, 0xe8, 0x0d, 0xea,
  0xfa, 0xe3, 0xdc, 0xe9, 0xee, 0xf4, 0x01, 0xe2, 0xf0, 0xe7, 0xe9, 0x0c,
  0xe6, 0x02, 0xd7, 0xe8, 0xfc, 0xe2, 0x0d, 0x00, 0x07, 0xde, 0x11, 0xec,
  0xe2, 0xeb, 0xe9, 0xeb, 0x0a, 0xe7, 0xfc, 0xe0, 0x04, 0xff, 0xed, 0xec,
  0xe7, 0xf1, 0x00, 0xeb, 0xf1, 0xf6, 0x01, 0x14, 0x00, 0xdf, 0x12, 0xf5,
  0xf3, 0xf4, 0xf7, 0xbc, 0xef, 0xdf, 0xf4, 0xed, 0xf6, 0xd1, 0x0b, 0xfa,
  0x14, 0xe6, 0xf0, 0x0a, 0xfe, 0xd7, 0xe9, 0xf9, 0xfd, 0x08, 0x56, 0xc6,
  0xfb, 0xfb, 0xf4, 0xfd, 0xfd, 0xec, 0xd7, 0xdb, 0xf0, 0xe5, 0xf2, 0xf6,
  0xeb, 0xf7, 0xf9, 0xe7, 0x02, 0xd8, 0xfe, 0xef, 0x13, 0xda, 0x07, 0xec,
  0xd6, 0xfe, 0xf9, 0xe9, 0xe5, 0x10, 0xed, 0x0d, 0x00, 0xf1, 0xf0, 0xfb,
  0xf3, 0xf5, 0xe9, 0xfc, 0xed, 0xff, 0xfc, 0xfc, 0xed, 0x07, 0xfb, 0x0e,
  0xf7, 0xeb, 0xf3, 0x04, 0xf4, 0xf1, 0x06, 0x03, 0x00, 0xeb, 0xe3, 0xe6,
  0x02, 0x14, 0xea, 0xfe, 0xf1, 0xe7, 0x02, 0x11, 0x0c, 0xcd, 0x07, 0x16,
  0xfd, 0xee, 0xfa, 0xfc, 0x0f, 0x00, 0xeb, 0x05, 0x01, 0x0d, 0xba, 0x16,
  0x06, 0xf3, 0xe6, 0xfa, 0x11, 0xf2, 0x06, 0x0d, 0x0e, 0x02, 0x0f, 0xff,
  0xfd, 0x0b, 0xff, 0x05, 0xfa, 0xe6, 0xde, 0x18, 0x16, 0xea, 0xff, 0xf5,
  0x05, 0x2b, 0x1a, 0xd1, 0x13, 0x0a, 0xe9, 0xfe, 0x00, 0x1d, 0xe4, 0xda,
  0xf7, 0x14, 0xdc, 0x10, 0xcc, 0xfb, 0xed, 0x1e, 0xdb, 0xf1, 0x4d, 0x02,
  0x03, 0x13, 0xfa, 0x07, 0xe9, 0x35, 0x04, 0xf0, 0x20, 0xfd, 0x1d, 0xe3,
  0xe5, 0xe8, 0xf7, 0x36, 0x09, 0xfa, 0xe5, 0x18, 0xe8, 0x07, 0xfc, 0xef,
  0xed, 0xf6, 0x07, 0xda, 0xf0, 0xf5, 0x00, 0x03, 0xf3, 0x18, 0x15, 0xfd,
  0x06, 0xf9, 0xf6, 0x0b, 0x19, 0x01, 0x06, 0x0d, 0xfa, 0xf2, 0x24, 0xfe,
  0xda, 0xff, 0xeb, 0x20, 0xeb, 0xf8, 0xf2, 0x03, 0xf9, 0x04, 0x0c, 0xf4,
  0xff, 0xfb, 0x01, 0xfd, 0x07, 0xaf, 0xd9, 0xf4, 0xfc, 0x12, 0x11, 0x00,
  0xfe, 0x0d, 0x16, 0xec, 0xe2, 0xf7, 0x10, 0x02, 0x0b, 0x1b, 0x0c, 0xfd,
  0x18, 0xda, 0xf6, 0xeb, 0xff, 0xec, 0xc5, 0x06, 0x06, 0x0c, 0xf1, 0xf0,
  0xeb, 0x1f, 0xfb, 0x02, 0x03, 0x0f, 0xf9, 0x0b, 0x04, 0x07, 0xfc, 0x01,
  0x11, 0xff, 0x05, 0x19, 0x0d, 0x01, 0xfe, 0xf4, 0xfb, 0x18, 0x15, 0x14,
  0xeb, 0xfe, 0x08, 0x01, 0xf7, 0xe1, 0x27, 0x01, 0xf7, 0x05, 0xf2, 0xf9,
  0x12, 0xff, 0xee, 0xf4, 0xf9, 0xd0, 0x0a, 0xec, 0xe3, 0xcb, 0x0a, 0x17,
  0xfc, 0xe4, 0x1a, 0xe8, 0x1a, 0x0e, 0xf5, 0xc3, 0x14, 0xdd, 0xcb, 0x09,
  0xc2, 0x10, 0x0f, 0x11, 0xdb, 0x13, 0xde, 0xfd, 0x13, 0xe4, 0xd4, 0xf2,
  0xee, 0x1a, 0xf6, 0xea, 0xec, 0x03, 0x02, 0x0b, 0xe7, 0xfe, 0xee, 0xe1,
  0x0b, 0x07, 0x08, 0xf8, 0xf7, 0xef, 0xfa, 0xf6, 0xef, 0x0d, 0xfa, 0x34,
  0x0f, 0xfb, 0x1d, 0xf6, 0xe3, 0xed, 0xff, 0xed, 0xff, 0xd5, 0xf5, 0xff,
  0x07, 0xea, 0x04, 0x05, 0x0c, 0xe3, 0x01, 0x04, 0xfd, 0x27, 0xf5, 0x0c,
  0xfb, 0xe1, 0x31, 0xf1, 0xfa, 0xf9, 0x14, 0xcd, 0x03, 0xec, 0xfe, 0xf1,
  0x00, 0xda, 0xec, 0xda, 0x03, 0xf3, 0x12, 0x08, 0xed, 0xf1, 0x16, 0x11,
  0xd7, 0x00, 0x07, 0x1b, 0xfe, 0x00, 0xd2, 0xcb, 0xf2, 0xef, 0x0e, 0xca,
  0x01, 0x0d, 0xf9, 0x05, 0xf0, 0xee, 0x20, 0xe8, 0xc1, 0xef, 0x0e, 0xf5,
  0xdf, 0xe8, 0xf0, 0x1f, 0x04, 0x23, 0x13, 0xbe, 0x17, 0xcb, 0xfe, 0x00,
  0x1c, 0xff, 0xe4, 0x1f, 0xed, 0xfc, 0xef, 0xd3, 0xf0, 0xeb, 0xe6, 0xf1,
  0xef, 0x07, 0x11, 0x09, 0xfa, 0xf9, 0xf4, 0x04, 0xf6, 0xe8, 0xdc, 0xe3,
  0xf7, 0x04, 0xea, 0x09, 0xee, 0x00, 0xe7, 0xf8, 0x05, 0x00, 0x0c, 0x18,
  0x0b, 0xff, 0xfc, 0xfd, 0x00, 0x2b, 0x07, 0xff, 0x10, 0xf6, 0x0e, 0xe3,
  0xff, 0x0b, 0xd3, 0x12, 0xf2, 0xfb, 0xe2, 0x09, 0x12, 0x06, 0x23, 0x0e,
  0x02, 0xfd, 0xea, 0x32, 0xe2, 0x00, 0xfc, 0xfb, 0x1e, 0x2d, 0x1d, 0xf4,
  0x02, 0xfd, 0x0d, 0xfb, 0x01, 0xf2, 0x0a, 0xfe, 0xfd, 0xfd, 0xfb, 0xe8,
  0xf0, 0xef, 0x10, 0x14, 0xf4, 0xe1, 0xfa, 0xf8, 0x05, 0xc8, 0xff, 0xfc,
  0xef, 0x03, 0xf0, 0xfa, 0xff, 0x03, 0x03, 0xe2, 0x0b, 0x03, 0xef, 0xf7,
  0x12, 0xfa, 0x02, 0xef, 0xdc, 0x02, 0xf9, 0x06, 0xf4, 0xed, 0xdc, 0xea,
  0x0a, 0x00, 0xf2, 0xdf, 0x0b, 0xe5, 0x19, 0xec, 0xff, 0xfe, 0xfb, 0x08,
  0xf9, 0x14, 0x02, 0x14, 0xf6, 0x0d, 0x03, 0x04, 0xee, 0x00, 0x0c, 0xf7,
  0xfd, 0x04, 0xde, 0x0e, 0x04, 0xff, 0xf5, 0xf5, 0x05, 0x1e, 0xe3, 0x0c,
  0xdf, 0x17, 0xff, 0xe3, 0xfd, 0xf2, 0xfc, 0x09, 0x0d, 0x17, 0x09, 0x0e,
  0xf6, 0xed, 0x05, 0x01, 0x1a, 0xd5, 0xdd, 0x02, 0x12, 0xe9, 0xfb, 0x01,
  0xf3, 0x04, 0xe3, 0xf1, 0x11, 0x0d, 0x01, 0x08, 0x07, 0xea, 0xfd, 0xf8,
  0xf2, 0xee, 0x08, 0xf9, 0xf3, 0xf8, 0xd9, 0x10, 0xec, 0x16, 0x42, 0x08,
  0xff, 0xc1, 0xda, 0x1b, 0xff, 0xce, 0xf6, 0xfa, 0x13, 0x2b, 0x07, 0xe8,
  0xcf, 0x03, 0x04, 0xf0, 0x0d, 0xfa, 0xb1, 0x09, 0xec, 0xd7, 0x04, 0x13,
  0xb5, 0x00, 0xe4, 0x01, 0xec, 0xfb, 0x1c, 0xd4, 0x00, 0xaf, 0xe9, 0x06,
  0xb0, 0x05, 0x04, 0xfb, 0x0a, 0x92, 0x1a, 0xf0, 0xc1, 0xe2, 0xf4, 0x05,
  0xf4, 0x13, 0xf4, 0x06, 0xcf, 0xf1, 0x81, 0xf5, 0xed, 0x10, 0x15, 0xae,
  0xed, 0xde, 0xe2, 0xfc, 0x00, 0xfa, 0xef, 0xe6, 0xfe, 0xfa, 0xc4, 0xdd,
  0xee, 0xdd, 0xe7, 0x0a, 0xe7, 0xe4, 0x07, 0xef, 0xd6, 0xea, 0xdb, 0xf8,
  0xed, 0xef, 0xf4, 0xe7, 0xd8, 0xd8, 0x0a, 0xe6, 0x02, 0x0c, 0xf8, 0xd4,
  0xfe, 0x0e, 0xfa, 0xee, 0x0c, 0xf5, 0xeb, 0xf6, 0x07, 0x16, 0x04, 0x0d,
  0xd7, 0x01, 0xc9, 0x05, 0xbc, 0x11, 0xf8, 0xf0, 0xfa, 0x08, 0x00, 0xf4,
  0x11, 0x12, 0x0c, 0xf6, 0x03, 0x03, 0xe3, 0x02, 0xea, 0xfe, 0x00, 0xf6,
  0xf4, 0xfa, 0x0f, 0x0a, 0xe5, 0xf1, 0x14, 0x05, 0x04, 0xeb, 0xfe, 0xfb,
  0x12, 0x18, 0x0c, 0xe8, 0x09, 0x1b, 0xf6, 0xfc, 0xae, 0xf1, 0xee, 0xf5,
  0x07, 0x05, 0x13, 0x07, 0xed, 0x08, 0xe9, 0xe7, 0xfb, 0xf5, 0xe3, 0x0f,
  0xfe, 0xec, 0xef, 0xe8, 0xed, 0x0e, 0xfe, 0x10, 0xe8, 0xea, 0xff, 0xf1,
  0x01, 0xdc, 0xdf, 0xeb, 0x18, 0xeb, 0xff, 0xfe, 0xfc, 0xf6, 0xf7, 0x01,
  0x05, 0x11, 0xd8, 0xee, 0xf3, 0x14, 0xeb, 0xf2, 0xf1, 0xe9, 0x01, 0xe3,
  0xfa, 0xf0, 0xe9, 0xf1, 0xfa, 0xe4, 0xf1, 0xe7, 0x08, 0x05, 0xf6, 0xf8,
  0x05, 0xdf, 0xf7, 0xfb, 0x0c, 0xe3, 0x02, 0xfb, 0xf4, 0xff, 0xfb, 0xfb,
  0xf7, 0xf1, 0xef, 0xfd, 0x04, 0x15, 0xfc, 0x00, 0x03, 0x0c, 0xfc, 0x09,
  0xda, 0xff, 0xd7, 0x12, 0xef, 0xf6, 0x15, 0xec, 0x0e, 0x14, 0xd5, 0xf6,
  0x0c, 0x02, 0x18, 0xed, 0x19, 0xff, 0xe9, 0x01, 0xde, 0x18, 0x19, 0x0f,
  0x04, 0x05, 0xf5, 0xff, 0x02, 0xdb, 0xf8, 0x29, 0xfb, 0x1f, 0x3b, 0x15,
  0x06, 0xed, 0x2a, 0x0d, 0x1b, 0x11, 0x07, 0xf1, 0x0c, 0x04, 0x04, 0xf7,
  0xfd, 0x27, 0x06, 0x0b, 0x0f, 0x0d, 0x12, 0x08, 0x0e, 0xfc, 0xe3, 0x0a,
  0xef, 0x0c, 0xfd, 0x15, 0xd7, 0x05, 0x11, 0xfc, 0x06, 0xff, 0x1a, 0xe7,
  0x1a, 0xfe, 0xf7, 0x05, 0xf9, 0x05, 0xff, 0xfa, 0x11, 0xf0, 0xfe, 0xfa,
  0xe9, 0x16, 0x03, 0x01, 0x01, 0xf3, 0xf9, 0xf6, 0x0f, 0xdb, 0xfc, 0xe9,
  0xfc, 0xeb, 0x0f, 0x14, 0xfe, 0x01, 0xd6, 0x04, 0xf8, 0xe2, 0x00, 0x18,
  0xca, 0xed, 0xf9, 0x05, 0xf8, 0x00, 0xee, 0x04, 0xf6, 0x0a, 0xfd, 0xe6,
  0xea, 0x0c, 0xfd, 0xfe, 0xf8, 0xe3, 0xc6, 0xe0, 0x09, 0x03, 0xf1, 0xe8,
  0x05, 0x11, 0xee, 0xf0, 0xe3, 0xed, 0xdc, 0x02, 0x08, 0xf0, 0x04, 0xf8,
  0xf2, 0x0d, 0xef, 0x0d, 0xfd, 0xfe, 0x12, 0xf9, 0xfe, 0x1b, 0xfb, 0xf4,
  0x05, 0xff, 0xe5, 0x1a, 0xe0, 0x15, 0xb2, 0x03, 0xf9, 0xe8, 0x07, 0xe2,
  0x0c, 0x06, 0xbc, 0x1e, 0xfb, 0x14, 0xf6, 0xec, 0xf7, 0x04, 0x0d, 0xf4,
  0xd6, 0xf9, 0x14, 0xf5, 0xf8, 0x08, 0xf1, 0x05, 0x07, 0xfc, 0xf0, 0xfa,
  0x07, 0x0f, 0xc7, 0x0a, 0xf8, 0xf9, 0xf0, 0x00, 0xf3, 0xea, 0xee, 0xfe,
  0x0b, 0xe7, 0xe1, 0xf9, 0x07, 0xf1, 0xe6, 0xe3, 0xdd, 0xe3, 0x18, 0xf2,
  0xf2, 0xf3, 0x01, 0xf4, 0xea, 0xed, 0x02, 0xfd, 0xfd, 0xe5, 0xf9, 0xf8,
  0x07, 0x00, 0xe9, 0xfb, 0xe1, 0xfd, 0xf8, 0xef, 0xd2, 0x12, 0x03, 0xfe,
  0xdc, 0x32, 0x41, 0x08, 0x02, 0x1a, 0x0f, 0xf8, 0x05, 0xf9, 0x0a, 0x1c,
  0xf9, 0xab, 0x18, 0x04, 0x09, 0x07, 0x0b, 0xe3, 0xf4, 0x13, 0xf8, 0x0a,
  0xf8, 0xee, 0x22, 0xf5, 0x0d, 0xbe, 0xe7, 0x07, 0x01, 0x12, 0xe6, 0xed,
  0x07, 0xf4, 0x00, 0xf6, 0xf4, 0xda, 0x00, 0xea, 0x1e, 0xf0, 0x2a, 0xec,
  0x04, 0xef, 0x0c, 0xfe, 0x00, 0x15, 0xe1, 0xf1, 0xf8, 0xf1, 0x18, 0x15,
  0xfb, 0xf8, 0x2f, 0xfe, 0x02, 0xf3, 0xf9, 0x05, 0xe8, 0xea, 0x09, 0x10,
  0x02, 0x42, 0xfc, 0x13, 0x22, 0x05, 0xe5, 0x03, 0xf2, 0x0f, 0x09, 0xf3,
  0x08, 0xfe, 0xf7, 0x08, 0x06, 0xf5, 0xe8, 0x16, 0xfb, 0x02, 0x06, 0x14,
  0xf9, 0x1e, 0x0b, 0x13, 0x1a, 0xf9, 0xe4, 0x12, 0x17, 0xfa, 0xf2, 0xf6,
  0xfd, 0xfb, 0xfe, 0x0c, 0x01, 0xfd, 0xf7, 0x10, 0xfb, 0x06, 0x0d, 0x18,
  0x0f, 0x0d, 0x0f, 0x04, 0xfc, 0x01, 0x01, 0x10, 0xd4, 0x29, 0x10, 0xe9,
  0xed, 0xf8, 0xe5, 0xf4, 0x02, 0x08, 0xdd, 0x1b, 0x20, 0xf4, 0x25, 0x03,
  0x24, 0x14, 0x07, 0xf5, 0xe0, 0x23, 0x13, 0x1b, 0xf6, 0xf7, 0xef, 0xe7,
  0x12, 0xfd, 0x02, 0xcf, 0xf8, 0xe2, 0xf6, 0xe3, 0xeb, 0x09, 0xf1, 0xfe,
  0xf9, 0x0c, 0x0d, 0xf3, 0x1e, 0xf9, 0xf9, 0xf9, 0xe3, 0xf2, 0xf0, 0x07,
  0x0d, 0x09, 0xfd, 0xf8, 0xff, 0x03, 0xc7, 0x13, 0x04, 0xf4, 0x3e, 0xf4,
  0x13, 0x1d, 0xf5, 0xf8, 0xcd, 0x14, 0xfe, 0xfd, 0x21, 0x22, 0xf1, 0x05,
  0x15, 0x18, 0xf2, 0xee, 0x0f, 0x0e, 0xdf, 0x1d, 0xf9, 0x02, 0x17, 0x13,
  0x3e, 0xfd, 0x0e, 0xec, 0xf2, 0x0b, 0x1e, 0xff, 0x05, 0x17, 0xfa, 0x0c,
  0x14, 0xe2, 0xf3, 0x06, 0x11, 0x27, 0x06, 0x39, 0x09, 0x09, 0x00, 0x15,
  0xf8, 0x20, 0xfe, 0x09, 0x1e, 0xf4, 0x01, 0x1e, 0x2c, 0x1b, 0x08, 0xed,
  0xf3, 0xf4, 0xfe, 0xe8, 0xfb, 0xe5, 0xec, 0xf2, 0x1a, 0xdb, 0xdf, 0xf5,
  0xf6, 0xdf, 0xe3, 0xf5, 0xd3, 0xdd, 0x0e, 0x0b, 0xed, 0xd8, 0xf8, 0x05,
  0xf9, 0x05, 0xcc, 0xfe, 0x02, 0xf4, 0x1b, 0xe0, 0xe0, 0xea, 0x02, 0x24,
  0xec, 0x03, 0x06, 0xf5, 0xe2, 0xff, 0xf3, 0xd5, 0x02, 0x06, 0xd5, 0xfb,
  0xeb, 0x1b, 0x29, 0xec, 0x27, 0x32, 0xfb, 0xf1, 0x03, 0x02, 0xe5, 0x04,
  0xbd, 0xf6, 0x1e, 0x1a, 0xeb, 0xe9, 0x0a, 0xec, 0xd5, 0xf7, 0xdb, 0xff,
  0xec, 0xef, 0xe0, 0xf8, 0x18, 0xe9, 0x17, 0xd7, 0x14, 0xcf, 0xfa, 0x1e,
  0x11, 0x23, 0xf6, 0xf3, 0xc7, 0x11, 0x21, 0xc8, 0x0b, 0xe2, 0x01, 0x16,
  0xe1, 0x04, 0x09, 0x24, 0xdb, 0x0b, 0xf3, 0xfa, 0x0d, 0xe3, 0xfd, 0xe9,
  0x1e, 0x19, 0xe7, 0xe6, 0x0a, 0xf2, 0xe8, 0x2b, 0xe5, 0xf3, 0xbb, 0xdc,
  0x10, 0x0b, 0x2c, 0xff, 0x28, 0xf9, 0xf5, 0xfb, 0xec, 0x00, 0x11, 0x0a,
  0xe2, 0x19, 0x18, 0xff, 0x15, 0x0a, 0xe9, 0x0b, 0x08, 0x06, 0xe2, 0xf9,
  0x10, 0x0f, 0x19, 0x0a, 0xe7, 0xf1, 0xf6, 0x18, 0x07, 0x0a, 0x02, 0xfd,
  0x0c, 0x15, 0x01, 0xed, 0xe9, 0x0c, 0xfc, 0x16, 0xfa, 0xfe, 0x04, 0x11,
  0x08, 0x01, 0xe0, 0xf7, 0x10, 0xe1, 0x0b, 0xe8, 0x17, 0xef, 0x3f, 0x0b,
  0x0d, 0xf4, 0xf4, 0xfc, 0xd4, 0x0c, 0x0b, 0x31, 0xf9, 0x10, 0x38, 0xed,
  0x12, 0xe8, 0x07, 0x08, 0xf5, 0x03, 0xf5, 0xf7, 0x25, 0xf9, 0xeb, 0x1a,
  0xf0, 0x0f, 0x04, 0xea, 0x11, 0xee, 0x07, 0x20, 0x07, 0xe6, 0x0f, 0x0d,
  0xfe, 0xff, 0x13, 0x05, 0x01, 0xd7, 0xfd, 0x19, 0xf4, 0x10, 0xf8, 0x04,
  0xe8, 0x13, 0x02, 0x0d, 0x20, 0x05, 0xde, 0x00, 0x11, 0xf7, 0xf7, 0xf4,
  0x09, 0x06, 0xdf, 0x1d, 0xd5, 0xfd, 0xea, 0xf4, 0x00, 0x16, 0x05, 0x1e,
  0x22, 0xf9, 0x0b, 0x24, 0x00, 0x05, 0xf6, 0xff, 0xe6, 0x0e, 0xfb, 0xf2,
  0xfa, 0xfa, 0x06, 0x08, 0xf2, 0x0d, 0x0f, 0xdc, 0xf7, 0xf2, 0xca, 0xfb,
  0xfa, 0x04, 0xe1, 0xfe, 0x02, 0xf4, 0xeb, 0x01, 0xf5, 0xee, 0x19, 0xf4,
  0xf3, 0x08, 0xed, 0xee, 0xf2, 0x20, 0x10, 0xc2, 0xf7, 0xec, 0xec, 0x01,
  0xf4, 0xd3, 0x17, 0x10, 0x01, 0xeb, 0x01, 0xd9, 0xf5, 0xd1, 0xf5, 0xfb,
  0xe3, 0x0e, 0xdb, 0xd2, 0xe3, 0xfc, 0x22, 0xe7, 0xf4, 0xf6, 0xe2, 0x0d,
  0xe3, 0x3a, 0x28, 0xe7, 0x19, 0xfa, 0xf3, 0xf7, 0x04, 0x1f, 0xe1, 0xff,
  0xf9, 0x01, 0x01, 0x14, 0xec, 0xeb, 0xdf, 0x00, 0x15, 0x0a, 0x1d, 0xf6,
  0x06, 0xea, 0xf4, 0x19, 0xf8, 0x00, 0xfb, 0x0e, 0x02, 0xf9, 0xfb, 0xf0,
  0x04, 0xea, 0xd4, 0xf1, 0xfb, 0x18, 0xf1, 0xf0, 0x03, 0x09, 0x07, 0xf8,
  0xe5, 0x05, 0xcf, 0xea, 0xf6, 0x00, 0x09, 0x01, 0xed, 0xf1, 0x09, 0xe5,
  0x00, 0xca, 0xfc, 0xff, 0xf1, 0xf5, 0xbb, 0xfd, 0x04, 0xe1, 0xec, 0xf4,
  0xe8, 0xf2, 0xee, 0xe5, 0x2e, 0xea, 0xb7, 0xfa, 0xf0, 0xde, 0x0b, 0xf8,
  0x01, 0x24, 0x04, 0xec, 0xff, 0xea, 0xe1, 0x03, 0xe9, 0x05, 0x13, 0xfb,
  0x04, 0xee, 0xfd, 0xe8, 0x0d, 0xe1, 0xe1, 0xf3, 0x12, 0xfc, 0x00, 0x09,
  0xcf, 0xff, 0x10, 0xce, 0x1d, 0x1c, 0xfc, 0xe0, 0xfc, 0xd4, 0xfc, 0xff,
  0xf2, 0x10, 0x1b, 0x04, 0xfd, 0xfa, 0xed, 0x01, 0xfe, 0xf5, 0xe1, 0xec,
  0xc7, 0xf1, 0xe8, 0xde, 0xde, 0xe3, 0x06, 0xe7, 0x05, 0xda, 0xf3, 0xd4,
  0x21, 0xf6, 0xf4, 0xe5, 0x0e, 0x09, 0xf6, 0x04, 0xfe, 0xee, 0xd7, 0xe5,
  0xc9, 0xfd, 0x0c, 0xf4, 0xcf, 0xeb, 0x00, 0xe5, 0x0c, 0xce, 0xd6, 0xd3,
  0xfc, 0x03, 0xdf, 0xef, 0x05, 0xf4, 0xd7, 0x0c, 0xda, 0xeb, 0xc9, 0xc6,
  0xd5, 0xe6, 0x0d, 0x0e, 0x02, 0x05, 0xec, 0xd4, 0x19, 0x08, 0xfd, 0xcc,
  0x09, 0x08, 0xeb, 0xe7, 0x0b, 0x04, 0xfb, 0x1e, 0xfa, 0x1b, 0x11, 0xfd,
  0xd4, 0xfe, 0x10, 0xe9, 0xed, 0xeb, 0x12, 0x09, 0x0d, 0xfa, 0x0a, 0xff,
  0xf6, 0x07, 0xff, 0x0d, 0x18, 0x0c, 0x08, 0xf1, 0x0f, 0xd6, 0x04, 0x0e,
  0xf2, 0x1d, 0xfc, 0x07, 0xfe, 0x0b, 0x1e, 0x10, 0xa6, 0xe4, 0xf0, 0x09,
  0xf8, 0x00, 0xfb, 0x0f, 0x13, 0xbe, 0x0f, 0xf6, 0xfc, 0x05, 0xfd, 0xd5,
  0xfb, 0x06, 0xf0, 0xf1, 0xf8, 0xd6, 0xdb, 0x16, 0xee, 0xde, 0x20, 0x09,
  0x1f, 0xf7, 0xf8, 0xee, 0xec, 0xf6, 0x0d, 0x08, 0x05, 0x1b, 0x0f, 0x0d,
  0xfc, 0xde, 0x27, 0xeb, 0x19, 0x1f, 0x15, 0x05, 0xe0, 0xfa, 0x01, 0xfd,
  0xec, 0xe8, 0xdb, 0xf7, 0xfa, 0xd6, 0xec, 0xfb, 0x11, 0xf0, 0xf6, 0xd9,
  0xf9, 0x0e, 0xd5, 0x04, 0x0c, 0x13, 0xed, 0xee, 0xea, 0xe1, 0x08, 0xfb,
  0xf9, 0x03, 0xfb, 0xe6, 0xfd, 0x09, 0x22, 0xfa, 0x13, 0x0c, 0x08, 0x13,
  0x01, 0x0e, 0x19, 0xf2, 0x09, 0x13, 0xf6, 0x04, 0xf6, 0x08, 0x0f, 0xf7,
  0x15, 0x11, 0x00, 0xf7, 0x13, 0x01, 0x1e, 0x1b, 0x12, 0x08, 0x03, 0x21,
  0x0a, 0x0a, 0x09, 0x08, 0x0f, 0xea, 0x0a, 0x1e, 0x09, 0x0f, 0x09, 0x0c,
  0x12, 0x0a, 0xfd, 0x08, 0xf6, 0x0f, 0x05, 0x01, 0xf4, 0x0b, 0xe9, 0x05,
  0x12, 0x02, 0x0b, 0x09, 0x0a, 0x0d, 0xde, 0x12, 0xfc, 0xfe, 0xf9, 0xf9,
  0x14, 0x13, 0x0b, 0x21, 0x14, 0x1d, 0xf6, 0x15, 0x17, 0x06, 0x28, 0xfc,
  0x0d, 0x21, 0x0a, 0x0b, 0xf1, 0x0f, 0x1e, 0x1b, 0x22, 0x04, 0x07, 0x0d,
  0xf8, 0x0a, 0x1f, 0x09, 0xf4, 0x0f, 0x0d, 0xfc, 0x0a, 0x0b, 0x07, 0xfc,
  0xf8, 0xee, 0x04, 0x0a, 0x0d, 0x0c, 0xeb, 0x09, 0xfc, 0x05, 0xfb, 0xf7,
  0xf9, 0xf7, 0xd9, 0xf0, 0xf9, 0x0f, 0xfc, 0xf5, 0x13, 0xe5, 0x0e, 0xfd,
  0xfc, 0xeb, 0x04, 0xe8, 0xfa, 0xd3, 0xdf, 0xfa, 0xfb, 0xfb, 0x06, 0x1d,
  0x0f, 0x03, 0x0e, 0x00, 0xea, 0x22, 0x1f, 0xf6, 0xdb, 0xd8, 0xed, 0xfc,
  0x22, 0x02, 0x14, 0xfe, 0xf2, 0xff, 0xe8, 0x13, 0xff, 0x0e, 0xdc, 0xf0,
  0xf4, 0xfa, 0xd8, 0x00, 0x03, 0xf7, 0x05, 0x19, 0x07, 0x08, 0x08, 0xf9,
  0x2e, 0x20, 0xe1, 0xc0, 0xff, 0x03, 0x05, 0x0f, 0x16, 0xe9, 0x1a, 0x0a,
  0xb6, 0x08, 0xfb, 0x04, 0xf3, 0xf6, 0xdc, 0xed, 0x11, 0xf0, 0xf8, 0x11,
  0x17, 0xfa, 0x0f, 0xfb, 0xff, 0x08, 0xf9, 0x1b, 0xf9, 0x0e, 0xf3, 0xe9,
  0xf7, 0xfd, 0x1a, 0xec, 0x05, 0xdd, 0x33, 0x28, 0x27, 0xf5, 0xfb, 0x03,
  0x0a, 0x11, 0xee, 0x0e, 0x0d, 0x0c, 0xf4, 0x0e, 0x03, 0xef, 0x13, 0x0b,
  0xf1, 0x1b, 0x17, 0xe7, 0x08, 0xfb, 0xc9, 0x02, 0x1f, 0xe8, 0x0a, 0xe8,
  0x13, 0x01, 0xf4, 0x09, 0x06, 0x09, 0xf7, 0x19, 0xb1, 0xef, 0xf3, 0xdb,
  0xfb, 0x47, 0xfd, 0xf5, 0xee, 0x04, 0x00, 0xfa, 0xf7, 0xf5, 0x12, 0xe0,
  0xfe, 0xe2, 0xc3, 0xf6, 0x0f, 0xe0, 0x11, 0xf0, 0xbb, 0xf1, 0x14, 0xf1,
  0xfb, 0xf6, 0xf1, 0x05, 0x01, 0xf2, 0x12, 0xed, 0x05, 0xce, 0x0a, 0x10,
  0xea, 0xfe, 0x0f, 0xf8, 0x15, 0xfd, 0xef, 0x17, 0xee, 0xd1, 0xf7, 0x09,
  0x1e, 0xff, 0xee, 0x0b, 0xf7, 0xfa, 0x08, 0xdb, 0x16, 0x1f, 0x0d, 0xc3,
  0x02, 0x0f, 0xd5, 0xfe, 0xe3, 0xdb, 0xf5, 0x0a, 0xd8, 0xfd, 0x10, 0x10,
  0xf1, 0xff, 0xfd, 0x07, 0x1e, 0x10, 0xf6, 0x00, 0x0f, 0x0e, 0xe8, 0xf1,
  0x12, 0x10, 0xf5, 0xe9, 0xd7, 0x11, 0xf4, 0x29, 0x00, 0xeb, 0x0d, 0x0b,
  0xe8, 0x01, 0x1d, 0xf6, 0xf3, 0xec, 0xf8, 0x00, 0xee, 0x0d, 0xda, 0xf9,
  0x0a, 0x07, 0xf7, 0xfa, 0xc3, 0xf1, 0xe3, 0x0b, 0xba, 0x13, 0xfa, 0x06,
  0xfa, 0xff, 0x05, 0xf8, 0x02, 0x26, 0x0a, 0xea, 0xd9, 0x0e, 0xef, 0xf6,
  0xfa, 0xe1, 0xc4, 0xf4, 0xe4, 0xed, 0x10, 0xf4, 0xfc, 0xfe, 0xf9, 0xf6,
  0x05, 0x07, 0xee, 0x0c, 0xc6, 0x30, 0xd9, 0xe1, 0xff, 0xd5, 0x04, 0x0c,
  0xee, 0xf0, 0x08, 0xdc, 0xf8, 0xf6, 0x0a, 0xda, 0x2a, 0xff, 0xe7, 0xf1,
  0xcf, 0xf6, 0x1b, 0x0e, 0xc2, 0xc4, 0x04, 0xf6, 0xc9, 0xe6, 0xf4, 0xd7,
  0x13, 0xd4, 0xfe, 0xdb, 0x0a, 0xd2, 0xd9, 0xcd, 0xf2, 0xf5, 0xf1, 0x0c,
  0xfe, 0x21, 0xff, 0x05, 0x00, 0x18, 0x00, 0xf8, 0xf2, 0x11, 0xe2, 0x08,
  0xfd, 0xc1, 0x01, 0xfa, 0xeb, 0xf9, 0xed, 0x06, 0xfe, 0x04, 0xc7, 0xaf,
  0xf0, 0xf2, 0xe1, 0x14, 0xd8, 0xe8, 0xf4, 0xec, 0xd4, 0x15, 0xce, 0xed,
  0xfd, 0xde, 0xd6, 0xe9, 0x0c, 0xd8, 0xf6, 0xcc, 0xd7, 0xf4, 0xd9, 0xf6,
  0xd3, 0xfd, 0xc6, 0xe4, 0xfa, 0xe7, 0xed, 0x06, 0x09, 0xf1, 0xeb, 0xe4,
  0x00, 0xe0, 0xf1, 0x00, 0xdd, 0xfb, 0xed, 0x00, 0xf2, 0xdc, 0xe3, 0xef,
  0xfe, 0xe1, 0xed, 0xf1, 0x0e, 0xf1, 0x17, 0xf0, 0xf0, 0xf7, 0x00, 0x03,
  0x03, 0xf7, 0xfc, 0xdc, 0xe9, 0xe7, 0x07, 0x0c, 0xec, 0x03, 0xfd, 0x0a,
  0xe4, 0xf1, 0xff, 0xfa, 0xd5, 0xe2, 0xf9, 0xec, 0xe5, 0xea, 0xe3, 0xef,
  0xf7, 0xed, 0xed, 0xfd, 0xf4, 0xe5, 0xfe, 0xdc, 0xf7, 0xfa, 0xe7, 0xf4,
  0xf9, 0xf2, 0xfa, 0x04, 0xe1, 0xee, 0xe2, 0x07, 0xd2, 0x06, 0xd0, 0xdc,
  0xea, 0xe6, 0xed, 0xe6, 0xf6, 0xe7, 0xf5, 0xeb, 0xe7, 0xf6, 0xdf, 0x02,
  0x0c, 0xfc, 0xf7, 0xed, 0xeb, 0x01, 0xec, 0xfb, 0xf4, 0xf7, 0xf4, 0x07,
  0x04, 0xf8, 0xff, 0x03, 0xf2, 0x0e, 0x00, 0x01, 0xf4, 0xf0, 0xf8, 0xed,
  0xf0, 0xf6, 0xfc, 0xfd, 0x04, 0x04, 0xf6, 0x05, 0x04, 0xf0, 0x04, 0xf6,
  0x04, 0x08, 0xf9, 0xf3, 0xfd, 0xf1, 0x02, 0xff, 0x1a, 0xff, 0xff, 0xff,
  0x04, 0x00, 0x00, 0x00, 0x28, 0x00, 0x00, 0x00, 0x8e, 0x00, 0x00, 0x00,
  0x3e, 0x00, 0x00, 0x00, 0x89, 0xff, 0xff, 0xff, 0xda, 0xff, 0xff, 0xff,
  0xc2, 0xff, 0xff, 0xff, 0x20, 0x00, 0x00, 0x00, 0xb0, 0xff, 0xff, 0xff,
  0x60, 0x00, 0x00, 0x00, 0x18, 0x00, 0x00, 0x00, 0xe8, 0xff, 0xff, 0xff,
  0x4e, 0xff, 0xff, 0xff, 0x04, 0x00, 0x00, 0x00, 0x08, 0x00, 0x00, 0x00,
  0xff, 0xff, 0xff, 0xff, 0x00, 0x02, 0x00, 0x00, 0x30, 0xf1, 0xff, 0xff,
  0x34, 0xf1, 0xff, 0xff, 0x0f, 0x00, 0x00, 0x00, 0x4d, 0x4c, 0x49, 0x52,
  0x20, 0x43, 0x6f, 0x6e, 0x76, 0x65, 0x72, 0x74, 0x65, 0x64, 0x2e, 0x00,
  0x01, 0x00, 0x00, 0x00, 0x14, 0x00, 0x00, 0x00, 0x00, 0x00, 0x0e, 0x00,
  0x18, 0x00, 0x14, 0x00, 0x10, 0x00, 0x0c, 0x00, 0x08, 0x00, 0x04, 0x00,
  0x0e, 0x00, 0x00, 0x00, 0x14, 0x00, 0x00, 0x00, 0x1c, 0x00, 0x00, 0x00,
  0xc0, 0x01, 0x00, 0x00, 0xc4, 0x01, 0x00, 0x00, 0xc8, 0x01, 0x00, 0x00,
  0x04, 0x00, 0x00, 0x00, 0x6d, 0x61, 0x69, 0x6e, 0x00, 0x00, 0x00, 0x00,
  0x06, 0x00, 0x00, 0x00, 0x5c, 0x01, 0x00, 0x00, 0x0c, 0x01, 0x00, 0x00,
  0xcc, 0x00, 0x00, 0x00, 0xa4, 0x00, 0x00, 0x00, 0x60, 0x00, 0x00, 0x00,
  0x14, 0x00, 0x00, 0x00, 0x00, 0x00, 0x0e, 0x00, 0x1a, 0x00, 0x14, 0x00,
  0x10, 0x00, 0x0c, 0x00, 0x0b, 0x00, 0x04, 0x00, 0x0e, 0x00, 0x00, 0x00,
  0x1c, 0x00, 0x00, 0x00, 0x00, 0x00, 0x00, 0x09, 0x1c, 0x00, 0x00, 0x00,
  0x20, 0x00, 0x00, 0x00, 0x03, 0x00, 0x00, 0x00, 0x00, 0x00, 0x06, 0x00,
  0x08, 0x00, 0x04, 0x00, 0x06, 0x00, 0x00, 0x00, 0x00, 0x00, 0x80, 0x3f,
  0x01, 0x00, 0x00, 0x00, 0x0f, 0x00, 0x00, 0x00, 0x01, 0x00, 0x00, 0x00,
  0x0e, 0x00, 0x00, 0x00, 0x00, 0x00, 0x0e, 0x00, 0x18, 0x00, 0x14, 0x00,
  0x10, 0x00, 0x0c, 0x00, 0x0b, 0x00, 0x04, 0x00, 0x0e, 0x00, 0x00, 0x00,
  0x14, 0x00, 0x00, 0x00, 0x00, 0x00, 0x00, 0x08, 0x10, 0x00, 0x00, 0x00,
  0x14, 0x00, 0x00, 0x00, 0x02, 0x00, 0x00, 0x00, 0x14, 0xf2, 0xff, 0xff,
  0x01, 0x00, 0x00, 0x00, 0x0e, 0x00, 0x00, 0x00, 0x03, 0x00, 0x00, 0x00,
  0x0d, 0x00, 0x00, 0x00, 0x03, 0x00, 0x00, 0x00, 0x02, 0x00, 0x00, 0x00,
  0x00, 0x00, 0x0a, 0x00, 0x10, 0x00, 0x0c, 0x00, 0x08, 0x00, 0x04, 0x00,
  0x0a, 0x00, 0x00, 0x00, 0x0c, 0x00, 0x00, 0x00, 0x10, 0x00, 0x00, 0x00,
  0x01, 0x00, 0x00, 0x00, 0x01, 0x00, 0x00, 0x00, 0x0d, 0x00, 0x00, 0x00,
  0x02, 0x00, 0x00, 0x00, 0x0c, 0x00, 0x00, 0x00, 0x01, 0x00, 0x00, 0x00,
  0x86, 0xff, 0xff, 0xff, 0x10, 0x00, 0x00, 0x00, 0x00, 0x00, 0x00, 0x01,
  0x18, 0x00, 0x00, 0x00, 0x1c, 0x00, 0x00, 0x00, 0x78, 0xff, 0xff, 0xff,
  0x00, 0x00, 0x00, 0x01, 0x02, 0x00, 0x00, 0x00, 0x02, 0x00, 0x00, 0x00,
  0x01, 0x00, 0x00, 0x00, 0x0c, 0x00, 0x00, 0x00, 0x03, 0x00, 0x00, 0x00,
  0x0b, 0x00, 0x00, 0x00, 0x05, 0x00, 0x00, 0x00, 0x04, 0x00, 0x00, 0x00,
  0xc2, 0xff, 0xff, 0xff, 0x10, 0x00, 0x00, 0x00, 0x00, 0x00, 0x00, 0x01,
  0x18, 0x00, 0x00, 0x00, 0x1c, 0x00, 0x00, 0x00, 0xb4, 0xff, 0xff, 0xff,
  0x00, 0x00, 0x00, 0x01, 0x02, 0x00, 0x00, 0x00, 0x02, 0x00, 0x00, 0x00,
  0x01, 0x00, 0x00, 0x00, 0x0b, 0x00, 0x00, 0x00, 0x03, 0x00, 0x00, 0x00,
  0x0a, 0x00, 0x00, 0x00, 0x07, 0x00, 0x00, 0x00, 0x06, 0x00, 0x00, 0x00,
  0x00, 0x00, 0x0e, 0x00, 0x14, 0x00, 0x00, 0x00, 0x10, 0x00, 0x0c, 0x00,
  0x0b, 0x00, 0x04, 0x00, 0x0e, 0x00, 0x00, 0x00, 0x1c, 0x00, 0x00, 0x00,
  0x00, 0x00, 0x00, 0x01, 0x24, 0x00, 0x00, 0x00, 0x28, 0x00, 0x00, 0x00,
  0x0c, 0x00, 0x10, 0x00, 0x00, 0x00, 0x0c, 0x00, 0x08, 0x00, 0x07, 0x00,
  0x0c, 0x00, 0x00, 0x00, 0x00, 0x00, 0x00, 0x01, 0x02, 0x00, 0x00, 0x00,
  0x02, 0x00, 0x00, 0x00, 0x01, 0x00, 0x00, 0x00, 0x0a, 0x00, 0x00, 0x00,
  0x03, 0x00, 0x00, 0x00, 0x00, 0x00, 0x00, 0x00, 0x09, 0x00, 0x00, 0x00,
  0x08, 0x00, 0x00, 0x00, 0x01, 0x00, 0x00, 0x00, 0x0f, 0x00, 0x00, 0x00,
  0x01, 0x00, 0x00, 0x00, 0x00, 0x00, 0x00, 0x00, 0x10, 0x00, 0x00, 0x00,
  0xfc, 0x0c, 0x00, 0x00, 0x9c, 0x0c, 0x00, 0x00, 0x20, 0x0c, 0x00, 0x00,
  0xbc, 0x0b, 0x00, 0x00, 0xc8, 0x09, 0x00, 0x00, 0xe4, 0x07, 0x00, 0x00,
  0xb0, 0x06, 0x00, 0x00, 0x8c, 0x05, 0x00, 0x00, 0xb8, 0x04, 0x00, 0x00,
  0xa4, 0x03, 0x00, 0x00, 0xe0, 0x02, 0x00, 0x00, 0x14, 0x02, 0x00, 0x00,
  0x48, 0x01, 0x00, 0x00, 0xdc, 0x00, 0x00, 0x00, 0x60, 0x00, 0x00, 0x00,
  0x04, 0x00, 0x00, 0x00, 0x5a, 0xf3, 0xff, 0xff, 0x00, 0x00, 0x00, 0x01,
  0x14, 0x00, 0x00, 0x00, 0x30, 0x00, 0x00, 0x00, 0x10, 0x00, 0x00, 0x00,
  0x00, 0x00, 0x00, 0x09, 0x34, 0x00, 0x00, 0x00, 0x44, 0xf3, 0xff, 0xff,
  0x08, 0x00, 0x00, 0x00, 0x10, 0x00, 0x00, 0x00, 0x01, 0x00, 0x00, 0x00,
  0x80, 0xff, 0xff, 0xff, 0xff, 0xff, 0xff, 0xff, 0x01, 0x00, 0x00, 0x00,
  0x00, 0x00, 0x80, 0x3b, 0x08, 0x00, 0x00, 0x00, 0x49, 0x64, 0x65, 0x6e,
  0x74, 0x69, 0x74, 0x79, 0x00, 0x00, 0x00, 0x00, 0x02, 0x00, 0x00, 0x00,
  0x01, 0x00, 0x00, 0x00, 0x0a, 0x00, 0x00, 0x00, 0xb2, 0xf3, 0xff, 0xff,
  0x00, 0x00, 0x00, 0x01, 0x14, 0x00, 0x00, 0x00, 0x34, 0x00, 0x00, 0x00,
  0x0f, 0x00, 0x00, 0x00, 0x00, 0x00, 0x00, 0x09, 0x54, 0x00, 0x00, 0x00,
  0x9c, 0xf3, 0xff, 0xff, 0x08, 0x00, 0x00, 0x00, 0x14, 0x00, 0x00, 0x00,
  0x01, 0x00, 0x00, 0x00, 0x38, 0x00, 0x00, 0x00, 0x00, 0x00, 0x00, 0x00,
  0x00, 0x00, 0x00, 0x00, 0x01, 0x00, 0x00, 0x00, 0x63, 0x43, 0xf8, 0x3e,
  0x26, 0x00, 0x00, 0x00, 0x6d, 0x6f, 0x64, 0x65, 0x6c, 0x2f, 0x64, 0x65,
  0x6e, 0x73, 0x65, 0x2f, 0x4d, 0x61, 0x74, 0x4d, 0x75, 0x6c, 0x3b, 0x6d,
  0x6f, 0x64, 0x65, 0x6c, 0x2f, 0x64, 0x65, 0x6e, 0x73, 0x65, 0x2f, 0x42,
  0x69, 0x61, 0x73, 0x41, 0x64, 0x64, 0x00, 0x00, 0x02, 0x00, 0x00, 0x00,
  0x01, 0x00, 0x00, 0x00, 0x0a, 0x00, 0x00, 0x00, 0x2a, 0xf4, 0xff, 0xff,
  0x00, 0x00, 0x00, 0x01, 0x14, 0x00, 0x00, 0x00, 0x34, 0x00, 0x00, 0x00,
  0x0e, 0x00, 0x00, 0x00, 0x00, 0x00, 0x00, 0x09, 0x44, 0x00, 0x00, 0x00,
  0x14, 0xf4, 0xff, 0xff, 0x08, 0x00, 0x00, 0x00, 0x14, 0x00, 0x00, 0x00,
  0x01, 0x00, 0x00, 0x00, 0x80, 0xff, 0xff, 0xff, 0xff, 0xff, 0xff, 0xff,
  0x00, 0x00, 0x00, 0x00, 0x01, 0x00, 0x00, 0x00, 0x46, 0x06, 0x03, 0x3e,
  0x15, 0x00, 0x00, 0x00, 0x6d, 0x6f, 0x64, 0x65, 0x6c, 0x2f, 0x66, 0x6c,
  0x61, 0x74, 0x74, 0x65, 0x6e, 0x2f, 0x52, 0x65, 0x73, 0x68, 0x61, 0x70,
  0x65, 0x00, 0x00, 0x00, 0x02, 0x00, 0x00, 0x00, 0x01, 0x00, 0x00, 0x00,
  0x00, 0x02, 0x00, 0x00, 0x92, 0xf4, 0xff, 0xff, 0x00, 0x00, 0x00, 0x01,
  0x14, 0x00, 0x00, 0x00, 0x34, 0x00, 0x00, 0x00, 0x0d, 0x00, 0x00, 0x00,
  0x00, 0x00, 0x00, 0x09, 0x9c, 0x00, 0x00, 0x00, 0x7c, 0xf4, 0xff, 0xff,
  0x08, 0x00, 0x00, 0x00, 0x14, 0x00, 0x00, 0x00, 0x01, 0x00, 0x00, 0x00,
  0x80, 0xff, 0xff, 0xff, 0xff, 0xff, 0xff, 0xff, 0x00, 0x00, 0x00, 0x00,
  0x01, 0x00, 0x00, 0x00, 0x46, 0x06, 0x03, 0x3e, 0x6f, 0x00, 0x00, 0x00,
  0x6d, 0x6f, 0x64, 0x65, 0x6c, 0x2f, 0x63, 0x6f, 0x6e, 0x76, 0x32, 0x64,
  0x5f, 0x32, 0x2f, 0x52, 0x65, 0x6c, 0x75, 0x3b, 0x6d, 0x6f, 0x64, 0x65,
  0x6c, 0x2f, 0x63, 0x6f, 0x6e, 0x76, 0x32, 0x64, 0x5f, 0x32, 0x2f, 0x42,
  0x69, 0x61, 0x73, 0x41, 0x64, 0x64, 0x3b, 0x6d, 0x6f, 0x64, 0x65, 0x6c,
  0x2f, 0x63, 0x6f, 0x6e, 0x76, 0x32, 0x64, 0x5f, 0x32, 0x2f, 0x43, 0x6f,
  0x6e, 0x76, 0x32, 0x44, 0x3b, 0x6d, 0x6f, 0x64, 0x65, 0x6c, 0x2f, 0x63,
  0x6f, 0x6e, 0x76, 0x32, 0x64, 0x5f, 0x32, 0x2f, 0x42, 0x69, 0x61, 0x73,
  0x41, 0x64, 0x64, 0x2f, 0x52, 0x65, 0x61, 0x64, 0x56, 0x61, 0x72, 0x69,
  0x61, 0x62, 0x6c, 0x65, 0x4f, 0x70, 0x2f, 0x72, 0x65, 0x73, 0x6f, 0x75,
  0x72, 0x63, 0x65, 0x00, 0x04, 0x00, 0x00, 0x00, 0x01, 0x00, 0x00, 0x00,
  0x04, 0x00, 0x00, 0x00, 0x04, 0x00, 0x00, 0x00, 0x20, 0x00, 0x00, 0x00,
  0x5a, 0xf5, 0xff, 0xff, 0x00, 0x00, 0x00, 0x01, 0x14, 0x00, 0x00, 0x00,
  0x34, 0x00, 0x00, 0x00, 0x0c, 0x00, 0x00, 0x00, 0x00, 0x00, 0x00, 0x09,
  0x9c, 0x00, 0x00, 0x00, 0x44, 0xf5, 0xff, 0xff, 0x08, 0x00, 0x00, 0x00,
  0x14, 0x00, 0x00, 0x00, 0x01, 0x00, 0x00, 0x00, 0x80, 0xff, 0xff, 0xff,
  0xff, 0xff, 0xff, 0xff, 0x00, 0x00, 0x00, 0x00, 0x01, 0x00, 0x00, 0x00,
  0xe9, 0x24, 0x80, 0x3d, 0x6f, 0x00, 0x00, 0x00, 0x6d, 0x6f, 0x64, 0x65,
  0x6c, 0x2f, 0x63, 0x6f, 0x6e, 0x76, 0x32, 0x64, 0x5f, 0x31, 0x2f, 0x52,
  0x65, 0x6c, 0x75, 0x3b, 0x6d, 0x6f, 0x64, 0x65, 0x6c, 0x2f, 0x63, 0x6f,
  0x6e, 0x76, 0x32, 0x64, 0x5f, 0x31, 0x2f, 0x42, 0x69, 0x61, 0x73, 0x41,
  0x64, 0x64, 0x3b, 0x6d, 0x6f, 0x64, 0x65, 0x6c, 0x2f, 0x63, 0x6f, 0x6e,
  0x76, 0x32, 0x64, 0x5f, 0x31, 0x2f, 0x43, 0x6f, 0x6e, 0x76, 0x32, 0x44,
  0x3b, 0x6d, 0x6f, 0x64, 0x65, 0x6c, 0x2f, 0x63, 0x6f, 0x6e, 0x76, 0x32,
  0x64, 0x5f, 0x31, 0x2f, 0x42, 0x69, 0x61, 0x73, 0x41, 0x64, 0x64, 0x2f,
  0x52, 0x65, 0x61, 0x64, 0x56, 0x61, 0x72, 0x69, 0x61, 0x62, 0x6c, 0x65,
  0x4f, 0x70, 0x2f, 0x72, 0x65, 0x73, 0x6f, 0x75, 0x72, 0x63, 0x65, 0x00,
  0x04, 0x00, 0x00, 0x00, 0x01, 0x00, 0x00, 0x00, 0x08, 0x00, 0x00, 0x00,
  0x08, 0x00, 0x00, 0x00, 0x10, 0x00, 0x00, 0x00, 0x22, 0xf6, 0xff, 0xff,
  0x00, 0x00, 0x00, 0x01, 0x14, 0x00, 0x00, 0x00, 0x30, 0x00, 0x00, 0x00,
  0x0b, 0x00, 0x00, 0x00, 0x00, 0x00, 0x00, 0x09, 0x94, 0x00, 0x00, 0x00,
  0x0c, 0xf6, 0xff, 0xff, 0x08, 0x00, 0x00, 0x00, 0x10, 0x00, 0x00, 0x00,
  0x01, 0x00, 0x00, 0x00, 0x80, 0xff, 0xff, 0xff, 0xff, 0xff, 0xff, 0xff,
  0x01, 0x00, 0x00, 0x00, 0xe6, 0xfa, 0x92, 0x3c, 0x68, 0x00, 0x00, 0x00,
  0x6d, 0x6f, 0x64, 0x65, 0x6c, 0x2f, 0x63, 0x6f, 0x6e, 0x76, 0x32, 0x64,
  0x2f, 0x52, 0x65, 0x6c, 0x75, 0x3b, 0x6d, 0x6f, 0x64, 0x65, 0x6c, 0x2f,
  0x63, 0x6f, 0x6e, 0x76, 0x32, 0x64, 0x2f, 0x42, 0x69, 0x61, 0x73, 0x41,
  0x64, 0x64, 0x3b, 0x6d, 0x6f, 0x64, 0x65, 0x6c, 0x2f, 0x63, 0x6f, 0x6e,
  0x76, 0x32, 0x64, 0x2f, 0x43, 0x6f, 0x6e, 0x76, 0x32, 0x44, 0x3b, 0x6d,
  0x6f, 0x64, 0x65, 0x6c, 0x2f, 0x63, 0x6f, 0x6e, 0x76, 0x32, 0x64, 0x2f,
  0x42, 0x69, 0x61, 0x73, 0x41, 0x64, 0x64, 0x2f, 0x52, 0x65, 0x61, 0x64,
  0x56, 0x61, 0x72, 0x69, 0x61, 0x62, 0x6c, 0x65, 0x4f, 0x70, 0x2f, 0x72,
  0x65, 0x73, 0x6f, 0x75, 0x72, 0x63, 0x65, 0x31, 0x00, 0x00, 0x00, 0x00,
  0x04, 0x00, 0x00, 0x00, 0x01, 0x00, 0x00, 0x00, 0x10, 0x00, 0x00, 0x00,
  0x10, 0x00, 0x00, 0x00, 0x08, 0x00, 0x00, 0x00, 0xe2, 0xf6, 0xff, 0xff,
  0x00, 0x00, 0x00, 0x01, 0x14, 0x00, 0x00, 0x00, 0x84, 0x00, 0x00, 0x00,
  0x0a, 0x00, 0x00, 0x00, 0x00, 0x00, 0x00, 0x09, 0xe4, 0x00, 0x00, 0x00,
  0xcc, 0xf6, 0xff, 0xff, 0x08, 0x00, 0x00, 0x00, 0x48, 0x00, 0x00, 0x00,
  0x08, 0x00, 0x00, 0x00, 0x00, 0x00, 0x00, 0x00, 0x00, 0x00, 0x00, 0x00,
  0x00, 0x00, 0x00, 0x00, 0x00, 0x00, 0x00, 0x00, 0x00, 0x00, 0x00, 0x00,
  0x00, 0x00, 0x00, 0x00, 0x00, 0x00, 0x00, 0x00, 0x00, 0x00, 0x00, 0x00,
  0x00, 0x00, 0x00, 0x00, 0x00, 0x00, 0x00, 0x00, 0x00, 0x00, 0x00, 0x00,
  0x00, 0x00, 0x00, 0x00, 0x00, 0x00, 0x00, 0x00, 0x00, 0x00, 0x00, 0x00,
  0x00, 0x00, 0x00, 0x00, 0x00, 0x00, 0x00, 0x00, 0x08, 0x00, 0x00, 0x00,
  0x84, 0xd8, 0x8e, 0x37, 0x30, 0x9f, 0xc3, 0x37, 0x87, 0x76, 0x01, 0x38,
  0x16, 0x93, 0xa4, 0x37, 0x22, 0xfc, 0x02, 0x38, 0x27, 0x5a, 0x0e, 0x38,
  0x1d, 0xb1, 0xc1, 0x37, 0x0d, 0x1d, 0xa0, 0x37, 0x67, 0x00, 0x00, 0x00,
  0x6d, 0x6f, 0x64, 0x65, 0x6c, 0x2f, 0x63, 0x6f, 0x6e, 0x76, 0x32, 0x64,
  0x2f, 0x52, 0x65, 0x6c, 0x75, 0x3b, 0x6d, 0x6f, 0x64, 0x65, 0x6c, 0x2f,
  0x63, 0x6f, 0x6e, 0x76, 0x32, 0x64, 0x2f, 0x42, 0x69, 0x61, 0x73, 0x41,
  0x64, 0x64, 0x3b, 0x6d, 0x6f, 0x64, 0x65, 0x6c, 0x2f, 0x63, 0x6f, 0x6e,
  0x76, 0x32, 0x64, 0x2f, 0x43, 0x6f, 0x6e, 0x76, 0x32, 0x44, 0x3b, 0x6d,
  0x6f, 0x64, 0x65, 0x6c, 0x2f, 0x63, 0x6f, 0x6e, 0x76, 0x32, 0x64, 0x2f,
  0x42, 0x69, 0x61, 0x73, 0x41, 0x64, 0x64, 0x2f, 0x52, 0x65, 0x61, 0x64,
  0x56, 0x61, 0x72, 0x69, 0x61, 0x62, 0x6c, 0x65, 0x4f, 0x70, 0x2f, 0x72,
  0x65, 0x73, 0x6f, 0x75, 0x72, 0x63, 0x65, 0x00, 0x04, 0x00, 0x00, 0x00,
  0x08, 0x00, 0x00, 0x00, 0x03, 0x00, 0x00, 0x00, 0x03, 0x00, 0x00, 0x00,
  0x03, 0x00, 0x00, 0x00, 0xf2, 0xf7, 0xff, 0xff, 0x00, 0x00, 0x00, 0x01,
  0x14, 0x00, 0x00, 0x00, 0x88, 0x00, 0x00, 0x00, 0x09, 0x00, 0x00, 0x00,
  0x00, 0x00, 0x00, 0x02, 0xb0, 0x00, 0x00, 0x00, 0xdc, 0xf7, 0xff, 0xff,
  0x08, 0x00, 0x00, 0x00, 0x4c, 0x00, 0x00, 0x00, 0x08, 0x00, 0x00, 0x00,
  0x00, 0x00, 0x00, 0x00, 0x00, 0x00, 0x00, 0x00, 0x00, 0x00, 0x00, 0x00,
  0x00, 0x00, 0x00, 0x00, 0x00, 0x00, 0x00, 0x00, 0x00, 0x00, 0x00, 0x00,
  0x00, 0x00, 0x00, 0x00, 0x00, 0x00, 0x00, 0x00, 0x00, 0x00, 0x00, 0x00,
  0x00, 0x00, 0x00, 0x00, 0x00, 0x00, 0x00, 0x00, 0x00, 0x00, 0x00, 0x00,
  0x00, 0x00, 0x00, 0x00, 0x00, 0x00, 0x00, 0x00, 0x00, 0x00, 0x00, 0x00,
  0x00, 0x00, 0x00, 0x00, 0x00, 0x00, 0x00, 0x00, 0x08, 0x00, 0x00, 0x00,
  0x84, 0xd8, 0x8e, 0x37, 0x30, 0x9f, 0xc3, 0x37, 0x87, 0x76, 0x01, 0x38,
  0x16, 0x93, 0xa4, 0x37, 0x22, 0xfc, 0x02, 0x38, 0x27, 0x5a, 0x0e, 0x38,
  0x1d, 0xb1, 0xc1, 0x37, 0x0d, 0x1d, 0xa0, 0x37, 0x2c, 0x00, 0x00, 0x00,
  0x6d, 0x6f, 0x64, 0x65, 0x6c, 0x2f, 0x63, 0x6f, 0x6e, 0x76, 0x32, 0x64,
  0x2f, 0x42, 0x69, 0x61, 0x73, 0x41, 0x64, 0x64, 0x2f, 0x52, 0x65, 0x61,
  0x64, 0x56, 0x61, 0x72, 0x69, 0x61, 0x62, 0x6c, 0x65, 0x4f, 0x70, 0x2f,
  0x72, 0x65, 0x73, 0x6f, 0x75, 0x72, 0x63, 0x65, 0x00, 0x00, 0x00, 0x00,
  0x01, 0x00, 0x00, 0x00, 0x08, 0x00, 0x00, 0x00, 0xc2, 0xf8, 0xff, 0xff,
  0x00, 0x00, 0x00, 0x01, 0x14, 0x00, 0x00, 0x00, 0xe4, 0x00, 0x00, 0x00,
  0x08, 0x00, 0x00, 0x00, 0x00, 0x00, 0x00, 0x09, 0xf4, 0x00, 0x00, 0x00,
  0xac, 0xf8, 0xff, 0xff, 0x08, 0x00, 0x00, 0x00, 0x88, 0x00, 0x00, 0x00,
  0x10, 0x00, 0x00, 0x00, 0x00, 0x00, 0x00, 0x00, 0x00, 0x00, 0x00, 0x00,
  0x00, 0x00, 0x00, 0x00, 0x00, 0x00, 0x00, 0x00, 0x00, 0x00, 0x00, 0x00,
  0x00, 0x00, 0x00, 0x00, 0x00, 0x00, 0x00, 0x00, 0x00, 0x00, 0x00, 0x00,
  0x00, 0x00, 0x00, 0x00, 0x00, 0x00, 0x00, 0x00, 0x00, 0x00, 0x00, 0x00,
  0x00, 0x00, 0x00, 0x00, 0x00, 0x00, 0x00, 0x00, 0x00, 0x00, 0x00, 0x00,
  0x00, 0x00, 0x00, 0x00, 0x00, 0x00, 0x00, 0x00, 0x00, 0x00, 0x00, 0x00,
  0x00, 0x00, 0x00, 0x00, 0x00, 0x00, 0x00, 0x00, 0x00, 0x00, 0x00, 0x00,
  0x00, 0x00, 0x00, 0x00, 0x00, 0x00, 0x00, 0x00, 0x00, 0x00, 0x00, 0x00,
  0x00, 0x00, 0x00, 0x00, 0x00, 0x00, 0x00, 0x00, 0x00, 0x00, 0x00, 0x00,
  0x00, 0x00, 0x00, 0x00, 0x00, 0x00, 0x00, 0x00, 0x00, 0x00, 0x00, 0x00,
  0x00, 0x00, 0x00, 0x00, 0x00, 0x00, 0x00, 0x00, 0x00, 0x00, 0x00, 0x00,
  0x10, 0x00, 0x00, 0x00, 0xbe, 0xca, 0xac, 0x3b, 0x0a, 0x28, 0x71, 0x3b,
  0x4a, 0x50, 0xa3, 0x3b, 0x99, 0xbd, 0x91, 0x3b, 0x3b, 0x06, 0x97, 0x3b,
  0x47, 0x8d, 0xa3, 0x3b, 0x8f, 0x60, 0x02, 0x3c, 0xe2, 0x3b, 0xb8, 0x3b,
  0xda, 0xba, 0x9c, 0x3b, 0x15, 0xac, 0x91, 0x3b, 0x07, 0xff, 0x98, 0x3b,
  0x41, 0x14, 0x94, 0x3b, 0xe4, 0xd6, 0x99, 0x3b, 0xca, 0x47, 0x69, 0x3b,
  0x46, 0x9a, 0xdd, 0x3b, 0xf4, 0x1f, 0x8c, 0x3b, 0x15, 0x00, 0x00, 0x00,
  0x6d, 0x6f, 0x64, 0x65, 0x6c, 0x2f, 0x63, 0x6f, 0x6e, 0x76, 0x32, 0x64,
  0x5f, 0x31, 0x2f, 0x43, 0x6f, 0x6e, 0x76, 0x32, 0x44, 0x00, 0x00, 0x00,
  0x04, 0x00, 0x00, 0x00, 0x10, 0x00, 0x00, 0x00, 0x03, 0x00, 0x00, 0x00,
  0x03, 0x00, 0x00, 0x00, 0x08, 0x00, 0x00, 0x00, 0xe2, 0xf9, 0xff, 0xff,
  0x00, 0x00, 0x00, 0x01, 0x14, 0x00, 0x00, 0x00, 0xe8, 0x00, 0x00, 0x00,
  0x07, 0x00, 0x00, 0x00, 0x00, 0x00, 0x00, 0x02, 0x10, 0x01, 0x00, 0x00,
  0xcc, 0xf9, 0xff, 0xff, 0x08, 0x00, 0x00, 0x00, 0x8c, 0x00, 0x00, 0x00,
  0x10, 0x00, 0x00, 0x00, 0x00, 0x00, 0x00, 0x00, 0x00, 0x00, 0x00, 0x00,
  0x00, 0x00, 0x00, 0x00, 0x00, 0x00, 0x00, 0x00, 0x00, 0x00, 0x00, 0x00,
  0x00, 0x00, 0x00, 0x00, 0x00, 0x00, 0x00, 0x00, 0x00, 0x00, 0x00, 0x00,
  0x00, 0x00, 0x00, 0x00, 0x00, 0x00, 0x00, 0x00, 0x00, 0x00, 0x00, 0x00,
  0x00, 0x00, 0x00, 0x00, 0x00, 0x00, 0x00, 0x00, 0x00, 0x00, 0x00, 0x00,
  0x00, 0x00, 0x00, 0x00, 0x00, 0x00, 0x00, 0x00, 0x00, 0x00, 0x00, 0x00,
  0x00, 0x00, 0x00, 0x00, 0x00, 0x00, 0x00, 0x00, 0x00, 0x00, 0x00, 0x00,
  0x00, 0x00, 0x00, 0x00, 0x00, 0x00, 0x00, 0x00, 0x00, 0x00, 0x00, 0x00,
  0x00, 0x00, 0x00, 0x00, 0x00, 0x00, 0x00, 0x00, 0x00, 0x00, 0x00, 0x00,
  0x00, 0x00, 0x00, 0x00, 0x00, 0x00, 0x00, 0x00, 0x00, 0x00, 0x00, 0x00,
  0x00, 0x00, 0x00, 0x00, 0x00, 0x00, 0x00, 0x00, 0x00, 0x00, 0x00, 0x00,
  0x00, 0x00, 0x00, 0x00, 0x10, 0x00, 0x00, 0x00, 0xf3, 0x69, 0xc6, 0x38,
  0x2f, 0x75, 0x8a, 0x38, 0xb3, 0x87, 0xbb, 0x38, 0xef, 0x59, 0xa7, 0x38,
  0x23, 0x6b, 0xad, 0x38, 0xbb, 0xcd, 0xbb, 0x38, 0xb2, 0xb5, 0x15, 0x39,
  0x6e, 0x8d, 0xd3, 0x38, 0x57, 0xf8, 0xb3, 0x38, 0xd2, 0x45, 0xa7, 0x38,
  0xc9, 0xae, 0xaf, 0x38, 0x5c, 0x09, 0xaa, 0x38, 0xa8, 0xa6, 0xb0, 0x38,
  0x93, 0xef, 0x85, 0x38, 0x57, 0x76, 0xfe, 0x38, 0x1d, 0xe7, 0xa0, 0x38,
  0x2e, 0x00, 0x00, 0x00, 0x6d, 0x6f, 0x64, 0x65, 0x6c, 0x2f, 0x63, 0x6f,
  0x6e, 0x76, 0x32, 0x64, 0x5f, 0x31, 0x2f, 0x42, 0x69, 0x61, 0x73, 0x41,
  0x64, 0x64, 0x2f, 0x52, 0x65, 0x61, 0x64, 0x56, 0x61, 0x72, 0x69, 0x61,
  0x62, 0x6c, 0x65, 0x4f, 0x70, 0x2f, 0x72, 0x65, 0x73, 0x6f, 0x75, 0x72,
  0x63, 0x65, 0x00, 0x00, 0x01, 0x00, 0x00, 0x00, 0x10, 0x00, 0x00, 0x00,
  0x12, 0xfb, 0xff, 0xff, 0x00, 0x00, 0x00, 0x01, 0x14, 0x00, 0x00, 0x00,
  0xa4, 0x01, 0x00, 0x00, 0x06, 0x00, 0x00, 0x00, 0x00, 0x00, 0x00, 0x09,
  0xb4, 0x01, 0x00, 0x00, 0xfc, 0xfa, 0xff, 0xff, 0x08, 0x00, 0x00, 0x00,
  0x08, 0x01, 0x00, 0x00, 0x20, 0x00, 0x00, 0x00, 0x00, 0x00, 0x00, 0x00,
  0x00, 0x00, 0x00, 0x00, 0x00, 0x00, 0x00, 0x00, 0x00, 0x00, 0x00, 0x00,
  0x00, 0x00, 0x00, 0x00, 0x00, 0x00, 0x00, 0x00, 0x00, 0x00, 0x00, 0x00,
  0x00, 0x00, 0x00, 0x00, 0x00, 0x00, 0x00, 0x00, 0x00, 0x00, 0x00, 0x00,
  0x00, 0x00, 0x00, 0x00, 0x00, 0x00, 0x00, 0x00, 0x00, 0x00, 0x00, 0x00,
  0x00, 0x00, 0x00, 0x00, 0x00, 0x00, 0x00, 0x00, 0x00, 0x00, 0x00, 0x00,
  0x00, 0x00, 0x00, 0x00, 0x00, 0x00, 0x00, 0x00, 0x00, 0x00, 0x00, 0x00,
  0x00, 0x00, 0x00, 0x00, 0x00, 0x00, 0x00, 0x00, 0x00, 0x00, 0x00, 0x00,
  0x00, 0x00, 0x00, 0x00, 0x00, 0x00, 0x00, 0x00, 0x00, 0x00, 0x00, 0x00,
  0x00, 0x00, 0x00, 0x00, 0x00, 0x00, 0x00, 0x00, 0x00, 0x00, 0x00, 0x00,
  0x00, 0x00, 0x00, 0x00, 0x00, 0x00, 0x00, 0x00, 0x00, 0x00, 0x00, 0x00,
  0x00, 0x00, 0x00, 0x00, 0x00, 0x00, 0x00, 0x00, 0x00, 0x00, 0x00, 0x00,
  0x00, 0x00, 0x00, 0x00, 0x00, 0x00, 0x00, 0x00, 0x00, 0x00, 0x00, 0x00,
  0x00, 0x00, 0x00, 0x00, 0x00, 0x00, 0x00, 0x00, 0x00, 0x00, 0x00, 0x00,
  0x00, 0x00, 0x00, 0x00, 0x00, 0x00, 0x00, 0x00, 0x00, 0x00, 0x00, 0x00,
  0x00, 0x00, 0x00, 0x00, 0x00, 0x00, 0x00, 0x00, 0x00, 0x00, 0x00, 0x00,
  0x00, 0x00, 0x00, 0x00, 0x00, 0x00, 0x00, 0x00, 0x00, 0x00, 0x00, 0x00,
  0x00, 0x00, 0x00, 0x00, 0x00, 0x00, 0x00, 0x00, 0x00, 0x00, 0x00, 0x00,
  0x00, 0x00, 0x00, 0x00, 0x00, 0x00, 0x00, 0x00, 0x00, 0x00, 0x00, 0x00,
  0x00, 0x00, 0x00, 0x00, 0x00, 0x00, 0x00, 0x00, 0x00, 0x00, 0x00, 0x00,
  0x00, 0x00, 0x00, 0x00, 0x00, 0x00, 0x00, 0x00, 0x00, 0x00, 0x00, 0x00,
  0x00, 0x00, 0x00, 0x00, 0x00, 0x00, 0x00, 0x00, 0x00, 0x00, 0x00, 0x00,
  0x20, 0x00, 0x00, 0x00, 0x22, 0x5b, 0x2b, 0x3b, 0x03, 0x7c, 0x7c, 0x3b,
  0xdc, 0x60, 0x49, 0x3b, 0xee, 0xc7, 0x31, 0x3b, 0xde, 0xab, 0x4d, 0x3b,
  0xa5, 0x9d, 0x89, 0x3b, 0x2c, 0x28, 0x37, 0x3b, 0x8a, 0x7e, 0x29, 0x3b,
  0x42, 0x1f, 0x79, 0x3b, 0xf0, 0xbc, 0x3b, 0x3b, 0x1c, 0x3a, 0x5f, 0x3b,
  0xcb, 0x84, 0x37, 0x3b, 0xcb, 0xc7, 0x4f, 0x3b, 0x58, 0x8c, 0x98, 0x3b,
  0xa1, 0xa4, 0x5d, 0x3b, 0xa0, 0x8d, 0x59, 0x3b, 0xb9, 0x88, 0x5f, 0x3b,
  0xa6, 0x18, 0xca, 0x3b, 0x4f, 0x07, 0x8c, 0x3b, 0x98, 0xdf, 0x76, 0x3b,
  0xc3, 0x25, 0x7e, 0x3b, 0x30, 0x21, 0xa2, 0x3b, 0x4f, 0xa5, 0xa3, 0x3b,
  0xc3, 0x6a, 0x9d, 0x3b, 0xb0, 0x7e, 0x6c, 0x3b, 0x37, 0xa5, 0x4c, 0x3b,
  0xbf, 0x21, 0x94, 0x3b, 0x4d, 0xd5, 0x6a, 0x3b, 0x24, 0x6a, 0x79, 0x3b,
  0xfc, 0x8e, 0x3f, 0x3b, 0xb6, 0xda, 0x39, 0x3b, 0x85, 0x05, 0x83, 0x3b,
  0x15, 0x00, 0x00, 0x00, 0x6d, 0x6f, 0x64, 0x65, 0x6c, 0x2f, 0x63, 0x6f,
  0x6e, 0x76, 0x32, 0x64, 0x5f, 0x32, 0x2f, 0x43, 0x6f, 0x6e, 0x76, 0x32,
  0x44, 0x00, 0x00, 0x00, 0x04, 0x00, 0x00, 0x00, 0x20, 0x00, 0x00, 0x00,
  0x03, 0x00, 0x00, 0x00, 0x03, 0x00, 0x00, 0x00, 0x10, 0x00, 0x00, 0x00,
  0xf2, 0xfc, 0xff, 0xff, 0x00, 0x00, 0x00, 0x01, 0x14, 0x00, 0x00, 0x00,
  0xa8, 0x01, 0x00, 0x00, 0x05, 0x00, 0x00, 0x00, 0x00, 0x00, 0x00, 0x02,
  0xd0, 0x01, 0x00, 0x00, 0xdc, 0xfc, 0xff, 0xff, 0x08, 0x00, 0x00, 0x00,
  0x0c, 0x01, 0x00, 0x00, 0x20, 0x00, 0x00, 0x00, 0x00, 0x00, 0x00, 0x00,
  0x00, 0x00, 0x00, 0x00, 0x00, 0x00, 0x00, 0x00, 0x00, 0x00, 0x00, 0x00,
  0x00, 0x00, 0x00, 0x00, 0x00, 0x00, 0x00, 0x00, 0x00, 0x00, 0x00, 0x00,
  0x00, 0x00, 0x00, 0x00, 0x00, 0x00, 0x00, 0x00, 0x00, 0x00, 0x00, 0x00,
  0x00, 0x00, 0x00, 0x00, 0x00, 0x00, 0x00, 0x00, 0x00, 0x00, 0x00, 0x00,
  0x00, 0x00, 0x00, 0x00, 0x00, 0x00, 0x00, 0x00, 0x00, 0x00, 0x00, 0x00,
  0x00, 0x00, 0x00, 0x00, 0x00, 0x00, 0x00, 0x00, 0x00, 0x00, 0x00, 0x00,
  0x00, 0x00, 0x00, 0x00, 0x00, 0x00, 0x00, 0x00, 0x00, 0x00, 0x00, 0x00,
  0x00, 0x00, 0x00, 0x00, 0x00, 0x00, 0x00, 0x00, 0x00, 0x00, 0x00, 0x00,
  0x00, 0x00, 0x00, 0x00, 0x00, 0x00, 0x00, 0x00, 0x00, 0x00, 0x00, 0x00,
  0x00, 0x00, 0x00, 0x00, 0x00, 0x00, 0x00, 0x00, 0x00, 0x00, 0x00, 0x00,
  0x00, 0x00, 0x00, 0x00, 0x00, 0x00, 0x00, 0x00, 0x00, 0x00, 0x00, 0x00,
  0x00, 0x00, 0x00, 0x00, 0x00, 0x00, 0x00, 0x00, 0x00, 0x00, 0x00, 0x00,
  0x00, 0x00, 0x00, 0x00, 0x00, 0x00, 0x00, 0x00, 0x00, 0x00, 0x00, 0x00,
  0x00, 0x00, 0x00, 0x00, 0x00, 0x00, 0x00, 0x00, 0x00, 0x00, 0x00, 0x00,
  0x00, 0x00, 0x00, 0x00, 0x00, 0x00, 0x00, 0x00, 0x00, 0x00, 0x00, 0x00,
  0x00, 0x00, 0x00, 0x00, 0x00, 0x00, 0x00, 0x00, 0x00, 0x00, 0x00, 0x00,
  0x00, 0x00, 0x00, 0x00, 0x00, 0x00, 0x00, 0x00, 0x00, 0x00, 0x00, 0x00,
  0x00, 0x00, 0x00, 0x00, 0x00, 0x00, 0x00, 0x00, 0x00, 0x00, 0x00, 0x00,
  0x00, 0x00, 0x00, 0x00, 0x00, 0x00, 0x00, 0x00, 0x00, 0x00, 0x00, 0x00,
  0x00, 0x00, 0x00, 0x00, 0x00, 0x00, 0x00, 0x00, 0x00, 0x00, 0x00, 0x00,
  0x00, 0x00, 0x00, 0x00, 0x00, 0x00, 0x00, 0x00, 0x00, 0x00, 0x00, 0x00,
  0x00, 0x00, 0x00, 0x00, 0x20, 0x00, 0x00, 0x00, 0x8c, 0x8c, 0x2b, 0x39,
  0xd1, 0xc4, 0x7c, 0x39, 0xee, 0x9a, 0x49, 0x39, 0x32, 0xfb, 0x31, 0x39,
  0x2d, 0xe7, 0x4d, 0x39, 0x54, 0xc5, 0x89, 0x39, 0xfd, 0x5c, 0x37, 0x39,
  0x6a, 0xaf, 0x29, 0x39, 0x18, 0x67, 0x79, 0x39, 0x13, 0xf3, 0x3b, 0x39,
  0x7b, 0x7a, 0x5f, 0x39, 0xb6, 0xb9, 0x37, 0x39, 0xb5, 0x03, 0x50, 0x39,
  0x55, 0xb8, 0x98, 0x39, 0x8b, 0xe4, 0x5d, 0x39, 0x5c, 0xcc, 0x59, 0x39,
  0x2e, 0xc9, 0x5f, 0x39, 0xed, 0x52, 0xca, 0x39, 0xb0, 0x2f, 0x8c, 0x39,
  0xc8, 0x26, 0x77, 0x39, 0x0c, 0x6f, 0x7e, 0x39, 0xf0, 0x4f, 0xa2, 0x39,
  0x7f, 0xd4, 0xa3, 0x39, 0x28, 0x98, 0x9d, 0x39, 0xe2, 0xc2, 0x6c, 0x39,
  0x3a, 0xe0, 0x4c, 0x39, 0x76, 0x4c, 0x94, 0x39, 0x04, 0x19, 0x6b, 0x39,
  0x10, 0xb2, 0x79, 0x39, 0x39, 0xc6, 0x3f, 0x39, 0x4e, 0x10, 0x3a, 0x39,
  0x4d, 0x2b, 0x83, 0x39, 0x2e, 0x00, 0x00, 0x00, 0x6d, 0x6f, 0x64, 0x65,
  0x6c, 0x2f, 0x63, 0x6f, 0x6e, 0x76, 0x32, 0x64, 0x5f, 0x32, 0x2f, 0x42,
  0x69, 0x61, 0x73, 0x41, 0x64, 0x64, 0x2f, 0x52, 0x65, 0x61, 0x64, 0x56,
  0x61, 0x72, 0x69, 0x61, 0x62, 0x6c, 0x65, 0x4f, 0x70, 0x2f, 0x72, 0x65,
  0x73, 0x6f, 0x75, 0x72, 0x63, 0x65, 0x00, 0x00, 0x01, 0x00, 0x00, 0x00,
  0x20, 0x00, 0x00, 0x00, 0xe2, 0xfe, 0xff, 0xff, 0x00, 0x00, 0x00, 0x01,
  0x14, 0x00, 0x00, 0x00, 0x30, 0x00, 0x00, 0x00, 0x04, 0x00, 0x00, 0x00,
  0x00, 0x00, 0x00, 0x09, 0x3c, 0x00, 0x00, 0x00, 0xcc, 0xfe, 0xff, 0xff,
  0x08, 0x00, 0x00, 0x00, 0x10, 0x00, 0x00, 0x00, 0x01, 0x00, 0x00, 0x00,
  0x00, 0x00, 0x00, 0x00, 0x00, 0x00, 0x00, 0x00, 0x01, 0x00, 0x00, 0x00,
  0x2c, 0xe5, 0xce, 0x3b, 0x12, 0x00, 0x00, 0x00, 0x6d, 0x6f, 0x64, 0x65,
  0x6c, 0x2f, 0x64, 0x65, 0x6e, 0x73, 0x65, 0x2f, 0x4d, 0x61, 0x74, 0x4d,
  0x75, 0x6c, 0x00, 0x00, 0x02, 0x00, 0x00, 0x00, 0x0a, 0x00, 0x00, 0x00,
  0x00, 0x02, 0x00, 0x00, 0x42, 0xff, 0xff, 0xff, 0x00, 0x00, 0x00, 0x01,
  0x14, 0x00, 0x00, 0x00, 0x34, 0x00, 0x00, 0x00, 0x03, 0x00, 0x00, 0x00,
  0x00, 0x00, 0x00, 0x02, 0x58, 0x00, 0x00, 0x00, 0x2c, 0xff, 0xff, 0xff,
  0x08, 0x00, 0x00, 0x00, 0x14, 0x00, 0x00, 0x00, 0x01, 0x00, 0x00, 0x00,
  0x00, 0x00, 0x00, 0x00, 0x00, 0x00, 0x00, 0x00, 0x00, 0x00, 0x00, 0x00,
  0x01, 0x00, 0x00, 0x00, 0xaf, 0xc8, 0x53, 0x3a, 0x2b, 0x00, 0x00, 0x00,
  0x6d, 0x6f, 0x64, 0x65, 0x6c, 0x2f, 0x64, 0x65, 0x6e, 0x73, 0x65, 0x2f,
  0x42, 0x69, 0x61, 0x73, 0x41, 0x64, 0x64, 0x2f, 0x52, 0x65, 0x61, 0x64,
  0x56, 0x61, 0x72, 0x69, 0x61, 0x62, 0x6c, 0x65, 0x4f, 0x70, 0x2f, 0x72,
  0x65, 0x73, 0x6f, 0x75, 0x72, 0x63, 0x65, 0x00, 0x01, 0x00, 0x00, 0x00,
  0x0a, 0x00, 0x00, 0x00, 0xba, 0xff, 0xff, 0xff, 0x00, 0x00, 0x00, 0x01,
  0x18, 0x00, 0x00, 0x00, 0x18, 0x00, 0x00, 0x00, 0x02, 0x00, 0x00, 0x00,
  0x00, 0x00, 0x00, 0x02, 0x24, 0x00, 0x00, 0x00, 0x04, 0x00, 0x04, 0x00,
  0x04, 0x00, 0x00, 0x00, 0x13, 0x00, 0x00, 0x00, 0x6d, 0x6f, 0x64, 0x65,
  0x6c, 0x2f, 0x66, 0x6c, 0x61, 0x74, 0x74, 0x65, 0x6e, 0x2f, 0x43, 0x6f,
  0x6e, 0x73, 0x74, 0x00, 0x01, 0x00, 0x00, 0x00, 0x02, 0x00, 0x00, 0x00,
  0x00, 0x00, 0x16, 0x00, 0x1c, 0x00, 0x18, 0x00, 0x17, 0x00, 0x10, 0x00,
  0x0c, 0x00, 0x08, 0x00, 0x00, 0x00, 0x00, 0x00, 0x00, 0x00, 0x07, 0x00,
  0x16, 0x00, 0x00, 0x00, 0x00, 0x00, 0x00, 0x01, 0x20, 0x00, 0x00, 0x00,
  0x40, 0x00, 0x00, 0x00, 0x01, 0x00, 0x00, 0x00, 0x00, 0x00, 0x00, 0x09,
  0x3c, 0x00, 0x00, 0x00, 0x0c, 0x00, 0x0c, 0x00, 0x00, 0x00, 0x00, 0x00,
  0x08, 0x00, 0x04, 0x00, 0x0c, 0x00, 0x00, 0x00, 0x08, 0x00, 0x00, 0x00,
  0x14, 0x00, 0x00, 0x00, 0x01, 0x00, 0x00, 0x00, 0x80, 0xff, 0xff, 0xff,
  0xff, 0xff, 0xff, 0xff, 0x00, 0x00, 0x00, 0x00, 0x01, 0x00, 0x00, 0x00,
  0x00, 0x00, 0x80, 0x3f, 0x01, 0x00, 0x00, 0x00, 0x78, 0x00, 0x00, 0x00,
  0x04, 0x00, 0x00, 0x00, 0x01, 0x00, 0x00, 0x00, 0x20, 0x00, 0x00, 0x00,
  0x20, 0x00, 0x00, 0x00, 0x03, 0x00, 0x00, 0x00, 0x04, 0x00, 0x00, 0x00,
  0x54, 0x00, 0x00, 0x00, 0x38, 0x00, 0x00, 0x00, 0x18, 0x00, 0x00, 0x00,
  0x04, 0x00, 0x00, 0x00, 0xc8, 0xff, 0xff, 0xff, 0x19, 0x00, 0x00, 0x00,
  0x02, 0x00, 0x00, 0x00, 0x00, 0x00, 0x00, 0x19, 0xd8, 0xff, 0xff, 0xff,
  0x09, 0x00, 0x00, 0x00, 0x04, 0x00, 0x00, 0x00, 0x00, 0x00, 0x00, 0x09,
  0x0c, 0x00, 0x0c, 0x00, 0x0b, 0x00, 0x00, 0x00, 0x00, 0x00, 0x04, 0x00,
  0x0c, 0x00, 0x00, 0x00, 0x16, 0x00, 0x00, 0x00, 0x00, 0x00, 0x00, 0x16,
  0x0c, 0x00, 0x10, 0x00, 0x0f, 0x00, 0x00, 0x00, 0x08, 0x00, 0x04, 0x00,
  0x0c, 0x00, 0x00, 0x00, 0x03, 0x00, 0x00, 0x00, 0x03, 0x00, 0x00, 0x00,
  0x00, 0x00, 0x00, 0x03
};
unsigned int quantized_model_tfl_len = 15928;
